{
    "version": "1.0",
    "truncation": null,
    "padding": null,
    "added_tokens": [],
    "normalizer": {
        "type": "Sequence",
        "normalizers": [
            {
                "type": "Prepend",
                "prepend": " "
            },
            {
                "type": "NFKC"
            },
            {
                "type": "Replace",
                "pattern": {
                    "Regex": "\n"
                },
                "content": "\n "
            },
            {
                "type": "Replace",
                "pattern": {
                    "Regex": " *\n"
                },
                "content": "\n"
            }
        ]
    },
    "pre_tokenizer": {
        "type": "Sequence",
        "pretokenizers": [
            {
                "type": "Split",
                "pattern": {
                    "Regex": "[^\\r\\n\\p{L}\\p{N}]?[\\p{Lu}\\p{Lt}\\p{Lm}\\p{Lo}\\p{M}]*[\\p{Ll}\\p{Lm}\\p{Lo}\\p{M}]+|[^\\r\\n\\p{L}\\p{N}]?[\\p{Lu}\\p{Lt}\\p{Lm}\\p{Lo}\\p{M}]+[\\p{Ll}\\p{Lm}\\p{Lo}\\p{M}]*| ?\\p{N}| ?[^\\s\\p{L}\\p{N}]+[\\r\\n/]*|\\s*[\\r\\n]+|\\s+(?!\\S)|\\s+"
                },
                "behavior": "Isolated",
                "invert": false
            },
            {
                "type": "ByteLevel",
                "add_prefix_space": false,
                "trim_offsets": true,
                "use_regex": false
            },
            {
                "type": "Split",
                "pattern": {
                    "Regex": ".{1,24}"
                },
                "behavior": "Isolated",
                "invert": false
            }
        ]
    },
    "post_processor": {
        "type": "TemplateProcessing",
        "single": [
            {
                "SpecialToken": {
                    "id": "<s>",
                    "type_id": 0
                }
            },
            {
                "Sequence": {
                    "id": "A",
                    "type_id": 0
                }
            }
        ],
        "pair": [
            {
                "SpecialToken": {
                    "id": "<s>",
                    "type_id": 0
                }
            },
            {
                "Sequence": {
                    "id": "A",
                    "type_id": 0
                }
            },
            {
                "SpecialToken": {
                    "id": "<s>",
                    "type_id": 0
                }
            },
            {
                "Sequence": {
                    "id": "B",
                    "type_id": 0
                }
            }
        ],
        "special_tokens": {
            "<s>": {
                "id": "<s>",
                "ids": [
                    1
                ],
                "tokens": [
                    "<s>"
                ]
            }
        }
    },
    "decoder": {
        "type": "Sequence",
        "decoders": [
            {
                "type": "ByteLevel",
                "add_prefix_space": true,
                "trim_offsets": true,
                "use_regex": true
            },
            {
                "type": "Strip",
                "content": " ",
                "start": 1,
                "stop": 0
            },
            {
                "type": "Replace",
                "pattern": {
                    "String": "\n "
                },
                "content": "\n"
            }
        ]
    },
    "model": {
        "type": "BPE",
        "dropout": null,
        "unk_token": "<unk>",
        "continuing_subword_prefix": null,
        "end_of_word_suffix": null,
        "fuse_unk": false,
        "byte_fallback": false,
        "ignore_merges": true,
        "vocab": {
            "<unk>": 0,
            "<s>": 1,
            "</s>": 2,
            "<pad>": 3,
            "<mask>": 4,
            "<special_0>": 5,
            "<special_1>": 6,
            "<special_2>": 7,
            "<special_3>": 8,
            "<special_4>": 9,
            "<special_5>": 10,
            "<special_6>": 11,
            "<special_7>": 12,
            "<special_8>": 13,
            "<special_9>": 14,
            "<special_10>": 15,
            "!": 16,
            "\"": 17,
            "#": 18,
            "$": 19,
            "%": 20,
            "&": 21,
            "'": 22,
            "(": 23,
            ")": 24,
            "*": 25,
            "+": 26,
            ",": 27,
            "-": 28,
            ".": 29,
            "/": 30,
            "0": 31,
            "1": 32,
            "2": 33,
            "3": 34,
            "4": 35,
            "5": 36,
            "6": 37,
            "7": 38,
            "8": 39,
            "9": 40,
            ":": 41,
            ";": 42,
            "<": 43,
            "=": 44,
            ">": 45,
            "?": 46,
            "@": 47,
            "A": 48,
            "B": 49,
            "C": 50,
            "D": 51,
            "E": 52,
            "F": 53,
            "G": 54,
            "H": 55,
            "I": 56,
            "J": 57,
            "K": 58,
            "L": 59,
            "M": 60,
            "N": 61,
            "O": 62,
            "P": 63,
            "Q": 64,
            "R": 65,
            "S": 66,
            "T": 67,
            "U": 68,
            "V": 69,
            "W": 70,
            "X": 71,
            "Y": 72,
            "Z": 73,
            "[": 74,
            "\\": 75,
            "]": 76,
            "^": 77,
            "_": 78,
            "`": 79,
            "a": 80,
            "b": 81,
            "c": 82,
            "d": 83,
            "e": 84,
            "f": 85,
            "g": 86,
            "h": 87,
            "i": 88,
            "j": 89,
            "k": 90,
            "l": 91,
            "m": 92,
            "n": 93,
            "o": 94,
            "p": 95,
            "q": 96,
            "r": 97,
            "s": 98,
            "t": 99,
            "u": 100,
            "v": 101,
            "w": 102,
            "x": 103,
            "y": 104,
            "z": 105,
            "{": 106,
            "|": 107,
            "}": 108,
            "~": 109,
            "¡": 110,
            "¢": 111,
            "£": 112,
            "¤": 113,
            "¥": 114,
            "¦": 115,
            "§": 116,
            "¨": 117,
            "©": 118,
            "ª": 119,
            "«": 120,
            "¬": 121,
            "®": 122,
            "¯": 123,
            "°": 124,
            "±": 125,
            "²": 126,
            "³": 127,
            "´": 128,
            "µ": 129,
            "¶": 130,
            "·": 131,
            "¸": 132,
            "¹": 133,
            "º": 134,
            "»": 135,
            "¼": 136,
            "½": 137,
            "¾": 138,
            "¿": 139,
            "À": 140,
            "Á": 141,
            "Â": 142,
            "Ã": 143,
            "Ä": 144,
            "Å": 145,
            "Æ": 146,
            "Ç": 147,
            "È": 148,
            "É": 149,
            "Ê": 150,
            "Ë": 151,
            "Ì": 152,
            "Í": 153,
            "Î": 154,
            "Ï": 155,
            "Ð": 156,
            "Ñ": 157,
            "Ò": 158,
            "Ó": 159,
            "Ô": 160,
            "Õ": 161,
            "Ö": 162,
            "×": 163,
            "Ø": 164,
            "Ù": 165,
            "Ú": 166,
            "Û": 167,
            "Ü": 168,
            "Ý": 169,
            "Þ": 170,
            "ß": 171,
            "à": 172,
            "á": 173,
            "â": 174,
            "ã": 175,
            "ä": 176,
            "å": 177,
            "æ": 178,
            "ç": 179,
            "è": 180,
            "é": 181,
            "ê": 182,
            "ë": 183,
            "ì": 184,
            "í": 185,
            "î": 186,
            "ï": 187,
            "ð": 188,
            "ñ": 189,
            "ò": 190,
            "ó": 191,
            "ô": 192,
            "õ": 193,
            "ö": 194,
            "÷": 195,
            "ø": 196,
            "ù": 197,
            "ú": 198,
            "û": 199,
            "ü": 200,
            "ý": 201,
            "þ": 202,
            "ÿ": 203,
            "Ā": 204,
            "ā": 205,
            "Ă": 206,
            "ă": 207,
            "Ą": 208,
            "ą": 209,
            "Ć": 210,
            "ć": 211,
            "Ĉ": 212,
            "ĉ": 213,
            "Ċ": 214,
            "ċ": 215,
            "Č": 216,
            "č": 217,
            "Ď": 218,
            "ď": 219,
            "Đ": 220,
            "đ": 221,
            "Ē": 222,
            "ē": 223,
            "Ĕ": 224,
            "ĕ": 225,
            "Ė": 226,
            "ė": 227,
            "Ę": 228,
            "ę": 229,
            "Ě": 230,
            "ě": 231,
            "Ĝ": 232,
            "ĝ": 233,
            "Ğ": 234,
            "ğ": 235,
            "Ġ": 236,
            "ġ": 237,
            "Ģ": 238,
            "ģ": 239,
            "Ĥ": 240,
            "ĥ": 241,
            "Ħ": 242,
            "ħ": 243,
            "Ĩ": 244,
            "ĩ": 245,
            "Ī": 246,
            "ī": 247,
            "Ĭ": 248,
            "ĭ": 249,
            "Į": 250,
            "į": 251,
            "İ": 252,
            "ı": 253,
            "Ĳ": 254,
            "ĳ": 255,
            "Ĵ": 256,
            "ĵ": 257,
            "Ķ": 258,
            "ķ": 259,
            "ĸ": 260,
            "Ĺ": 261,
            "ĺ": 262,
            "Ļ": 263,
            "ļ": 264,
            "Ľ": 265,
            "ľ": 266,
            "Ŀ": 267,
            "ŀ": 268,
            "Ł": 269,
            "ł": 270,
            "Ń": 271,
            "Ġt": 272,
            "Ġa": 273,
            "he": 274,
            "in": 275,
            "re": 276,
            "Ġs": 277,
            "Ġthe": 278,
            "on": 279,
            "ou": 280,
            "Ġw": 281,
            "er": 282,
            "at": 283,
            "Ġc": 284,
            "nd": 285,
            "ing": 286,
            ".\\": 287,
            "or": 288,
            "es": 289,
            "it": 290,
            "en": 291,
            "Ġb": 292,
            "ed": 293,
            "Ġf": 294,
            "is": 295,
            "Ġm": 296,
            "Ġo": 297,
            "Ġp": 298,
            "an": 299,
            "Ġto": 300,
            "Ġd": 301,
            "al": 302,
            "ar": 303,
            "Ġand": 304,
            "Ġh": 305,
            "Ġin": 306,
            "Ġof": 307,
            "Ġth": 308,
            "Ġl": 309,
            "ic": 310,
            "om": 311,
            "as": 312,
            "Ġy": 313,
            "ll": 314,
            "Ġe": 315,
            "ion": 316,
            "le": 317,
            "Ġg": 318,
            "Ġyou": 319,
            "Ġn": 320,
            "ow": 321,
            "et": 322,
            "ve": 323,
            "us": 324,
            "ent": 325,
            "ly": 326,
            "Ġre": 327,
            "\\n": 328,
            "ot": 329,
            "ct": 330,
            "ĠI": 331,
            "Ġbe": 332,
            "id": 333,
            "im": 334,
            "ay": 335,
            "Ġhe": 336,
            "ig": 337,
            "ro": 338,
            "Ġthat": 339,
            "ver": 340,
            "Ġon": 341,
            "ĠT": 342,
            "st": 343,
            "Ġit": 344,
            "ld": 345,
            "ad": 346,
            "Ġst": 347,
            "ut": 348,
            "se": 349,
            "ir": 350,
            "ac": 351,
            "'s": 352,
            "Ġis": 353,
            "?\\": 354,
            "Ġwh": 355,
            "am": 356,
            "Ġwe": 357,
            "Ġfor": 358,
            "ur": 359,
            "out": 360,
            "ĠS": 361,
            "ke": 362,
            "ĠA": 363,
            "ith": 364,
            "ation": 365,
            "ce": 366,
            "her": 367,
            "oo": 368,
            "Ġu": 369,
            "if": 370,
            "ht": 371,
            "ch": 372,
            "Ġan": 373,
            "Ġwith": 374,
            "Ġha": 375,
            "Ġas": 376,
            "\\\"": 377,
            "ter": 378,
            "ĠC": 379,
            "ra": 380,
            "ul": 381,
            "il": 382,
            "ol": 383,
            "ill": 384,
            "ĠM": 385,
            "Ġex": 386,
            "Ġme": 387,
            "Ġwas": 388,
            "ight": 389,
            "Ġcon": 390,
            "Ġor": 391,
            "pe": 392,
            "ome": 393,
            "Ġk": 394,
            "ri": 395,
            "'t": 396,
            "Ġare": 397,
            "our": 398,
            "Ġse": 399,
            "ore": 400,
            "ant": 401,
            "te": 402,
            "ag": 403,
            "ess": 404,
            "Ġde": 405,
            "Ġr": 406,
            "Ġthey": 407,
            "ĠB": 408,
            "Ġne": 409,
            "ers": 410,
            "op": 411,
            "ure": 412,
            "Ġli": 413,
            "ate": 414,
            "\\u": 415,
            "ĠW": 416,
            "Ġab": 417,
            "th": 418,
            "Ġdo": 419,
            "ist": 420,
            "ould": 421,
            "ĠH": 422,
            "ust": 423,
            "un": 424,
            "qu": 425,
            "Ġcom": 426,
            "Ġpro": 427,
            "pp": 428,
            "ies": 429,
            "Ġsh": 430,
            "and": 431,
            "Ġcan": 432,
            "ain": 433,
            "rom": 434,
            "Ġat": 435,
            "Ġus": 436,
            "ĠThe": 437,
            "!\\": 438,
            "ab": 439,
            "Ġv": 440,
            "Ġch": 441,
            "um": 442,
            "est": 443,
            "Ġyour": 444,
            "oug": 445,
            "Ġthis": 446,
            "Ġle": 447,
            "all": 448,
            "nt": 449,
            "ĠP": 450,
            "Ġhave": 451,
            "Ġnot": 452,
            "ive": 453,
            "ity": 454,
            "em": 455,
            "os": 456,
            "Ġwor": 457,
            "art": 458,
            "Ġabout": 459,
            "el": 460,
            "Ġwhe": 461,
            "red": 462,
            "Ġkn": 463,
            "Ġal": 464,
            "ect": 465,
            "ort": 466,
            "Ġj": 467,
            "ally": 468,
            "Ġfrom": 469,
            "Ġsu": 470,
            "ci": 471,
            "Ġtheir": 472,
            "Ġso": 473,
            "ĠD": 474,
            "Ġpl": 475,
            "Ġby": 476,
            "hat": 477,
            "The": 478,
            "king": 479,
            "ĠE": 480,
            "ound": 481,
            "..": 482,
            "Ġall": 483,
            "ment": 484,
            "od": 485,
            "one": 486,
            "Ġknow": 487,
            "ard": 488,
            "Ġlike": 489,
            "ie": 490,
            "xt": 491,
            "very": 492,
            "res": 493,
            "ell": 494,
            "--": 495,
            "Ġ\\\"": 496,
            "ud": 497,
            "ind": 498,
            "ĠL": 499,
            "ĠF": 500,
            "Ġup": 501,
            "ous": 502,
            "ine": 503,
            "You": 504,
            "ge": 505,
            "ood": 506,
            "pl": 507,
            "ĠR": 508,
            "ĠG": 509,
            "Ġwhat": 510,
            "iv": 511,
            "ide": 512,
            "ong": 513,
            "Ġ1": 514,
            "ough": 515,
            "Ġen": 516,
            "Ġgo": 517,
            "Ġ\\": 518,
            "Ġtr": 519,
            "ther": 520,
            "Ġ(": 521,
            "ĠN": 522,
            "ap": 523,
            "Ġout": 524,
            "ake": 525,
            "ice": 526,
            "ĠO": 527,
            "ions": 528,
            "Ġthem": 529,
            "Ġbut": 530,
            "ff": 531,
            "Ġim": 532,
            "ack": 533,
            "Ġmy": 534,
            "Ġher": 535,
            "Ġthere": 536,
            "Ġone": 537,
            "Ġar": 538,
            "reat": 539,
            "ast": 540,
            "are": 541,
            "oc": 542,
            "Ġsa": 543,
            "Ġsome": 544,
            "hing": 545,
            "text": 546,
            "og": 547,
            "Ġint": 548,
            "Ġwere": 549,
            "ich": 550,
            "ime": 551,
            "iz": 552,
            "per": 553,
            "ks": 554,
            ":\"": 555,
            "ĠJ": 556,
            "Ġhis": 557,
            "Ġ{": 558,
            "\":\"": 559,
            "}Ċ": 560,
            "Ġ{\"": 561,
            "act": 562,
            "ven": 563,
            "Ġhow": 564,
            "\"}Ċ": 565,
            "Ġdis": 566,
            "Ġwho": 567,
            "ost": 568,
            "ans": 569,
            "Ġour": 570,
            "Ġpe": 571,
            "Ġwhen": 572,
            "Ġmore": 573,
            "Ġother": 574,
            "ame": 575,
            "Ġman": 576,
            "Ġshe": 577,
            "ry": 578,
            "Ġad": 579,
            "Ġun": 580,
            "ings": 581,
            "Ġhad": 582,
            "Ġfe": 583,
            "Ġcl": 584,
            "Ġwill": 585,
            "nder": 586,
            "omet": 587,
            "ep": 588,
            "Ġte": 589,
            "fe": 590,
            "Ġjust": 591,
            "ays": 592,
            "ob": 593,
            "ak": 594,
            "Ġgr": 595,
            "ople": 596,
            "pt": 597,
            "ical": 598,
            "ah": 599,
            "Ġwould": 600,
            "ach": 601,
            "Ġget": 602,
            "Ġtime": 603,
            "ose": 604,
            "aus": 605,
            "Ġif": 606,
            "ace": 607,
            "his": 608,
            "'re": 609,
            "age": 610,
            "Ġcomp": 611,
            "ations": 612,
            "Ġbec": 613,
            "cc": 614,
            "Ġres": 615,
            "Ġqu": 616,
            "ink": 617,
            "Ġhel": 618,
            "Ġwhich": 619,
            "ult": 620,
            "ear": 621,
            "Ġevery": 622,
            "able": 623,
            "ook": 624,
            "ile": 625,
            "ite": 626,
            "ance": 627,
            "Ġany": 628,
            "uc": 629,
            "Ġpeople": 630,
            "ass": 631,
            "Ġhelp": 632,
            "Ġsp": 633,
            "ove": 634,
            "ved": 635,
            "ence": 636,
            "ble": 637,
            "Ġinto": 638,
            ".\"}Ċ": 639,
            "ated": 640,
            "Ġhas": 641,
            "ild": 642,
            "av": 643,
            "Ġ2": 644,
            "ĠU": 645,
            "Ġsomet": 646,
            "Ġdon": 647,
            "Ġspe": 648,
            "ents": 649,
            "arn": 650,
            "own": 651,
            "ip": 652,
            "ue": 653,
            "Ġcould": 654,
            "Ġcont": 655,
            "orm": 656,
            "Ġimp": 657,
            "ne": 658,
            "Ġwant": 659,
            "Ġunder": 660,
            "Ġthese": 661,
            "so": 662,
            "Ġdid": 663,
            "Ġtw": 664,
            "ang": 665,
            "ater": 666,
            "Ġhim": 667,
            "Ġag": 668,
            "ber": 669,
            "end": 670,
            "'m": 671,
            "ia": 672,
            "It": 673,
            "ial": 674,
            "Ġinc": 675,
            "oll": 676,
            "ond": 677,
            "Ġover": 678,
            "ree": 679,
            "ru": 680,
            "vel": 681,
            "ause": 682,
            "ary": 683,
            "ious": 684,
            "Ġbet": 685,
            "Ġdif": 686,
            "Ġpart": 687,
            "ces": 688,
            "itt": 689,
            "Ġper": 690,
            "Ġneed": 691,
            "Ġright": 692,
            "ors": 693,
            "Ġnew": 694,
            "Ġsee": 695,
            "fere": 696,
            "ign": 697,
            "Ġthan": 698,
            "Ġthr": 699,
            "ount": 700,
            "Ġno": 701,
            "Ġpr": 702,
            "ress": 703,
            "Ġro": 704,
            "Ġlearn": 705,
            "Ġbeen": 706,
            "Ġcall": 707,
            "ving": 708,
            "What": 709,
            "ase": 710,
            "ory": 711,
            "eah": 712,
            "sel": 713,
            "ĠIt": 714,
            "hy": 715,
            "other": 716,
            "ĠIn": 717,
            ".\\\"": 718,
            "Ġpre": 719,
            "Ġam": 720,
            "Ġcomm": 721,
            "ire": 722,
            "Ġer": 723,
            "Ġeven": 724,
            "get": 725,
            "Ġthink": 726,
            "...\\": 727,
            "Ġact": 728,
            "He": 729,
            "Ġthen": 730,
            "ord": 731,
            "ked": 732,
            "riend": 733,
            "wn": 734,
            "Ġbr": 735,
            "fter": 736,
            "Ġhere": 737,
            "Ġsaid": 738,
            "Ġthrough": 739,
            "'ll": 740,
            "Ġtoo": 741,
            "ens": 742,
            "ish": 743,
            "And": 744,
            "als": 745,
            "irst": 746,
            "les": 747,
            "Ġwhere": 748,
            "Ġtwo": 749,
            "Ġoff": 750,
            "Ġback": 751,
            "Ġsomething": 752,
            "Ġdiffere": 753,
            "ons": 754,
            "ade": 755,
            "ily": 756,
            "Ġsm": 757,
            "Ġbl": 758,
            "fore": 759,
            "we": 760,
            "Ġalso": 761,
            "ick": 762,
            "Ġyear": 763,
            "Ġgot": 764,
            "ĠK": 765,
            "Ġfriend": 766,
            "ought": 767,
            "ĠY": 768,
            "ating": 769,
            "hed": 770,
            "Ġfl": 771,
            "ool": 772,
            "Ġexpl": 773,
            "Ġits": 774,
            "Ġrem": 775,
            "'ve": 776,
            "Ġapp": 777,
            "ĠHe": 778,
            "ĠThis": 779,
            "Ġday": 780,
            "Ġsc": 781,
            "ful": 782,
            "Ġstud": 783,
            "uring": 784,
            "Ġmake": 785,
            "ition": 786,
            "----": 787,
            "pect": 788,
            "Ġmay": 789,
            "ub": 790,
            "Ġem": 791,
            "stand": 792,
            "oy": 793,
            "Ġnow": 794,
            "ĠCh": 795,
            "ife": 796,
            "ves": 797,
            "aking": 798,
            "Ġdec": 799,
            "ities": 800,
            "form": 801,
            "Ġway": 802,
            "ise": 803,
            "Ġwork": 804,
            "cial": 805,
            "ict": 806,
            "We": 807,
            "urn": 808,
            "ng": 809,
            "Ġhapp": 810,
            "Ġ-": 811,
            "hen": 812,
            "imes": 813,
            "Ġrec": 814,
            "Ġmany": 815,
            "Ġdes": 816,
            "Ġbu": 817,
            "ple": 818,
            "int": 819,
            "olog": 820,
            "Ġonly": 821,
            "ific": 822,
            "ures": 823,
            "Ġbecause": 824,
            "Ġdown": 825,
            "uch": 826,
            "ĠSt": 827,
            "vers": 828,
            "Ġgood": 829,
            "Ġdifferent": 830,
            "ction": 831,
            "Ġthose": 832,
            "du": 833,
            ".\\\"\\": 834,
            "ittle": 835,
            "Ġsuch": 836,
            "Ġfirst": 837,
            ":\\": 838,
            "ave": 839,
            "Ġsay": 840,
            "Ġcalled": 841,
            "Ġacc": 842,
            "ting": 843,
            "Ġind": 844,
            "Ġdisc": 845,
            "ĠThey": 846,
            "Ġfeel": 847,
            "Ġsy": 848,
            "Ġlet": 849,
            "Ġwell": 850,
            "Ġwhile": 851,
            "iss": 852,
            "oth": 853,
            "vent": 854,
            "But": 855,
            "Yeah": 856,
            "Ġfind": 857,
            "ull": 858,
            "Ġke": 859,
            "arm": 860,
            "Ġmight": 861,
            "Ġbefore": 862,
            "Ġunderstand": 863,
            "igh": 864,
            "Ġafter": 865,
            "No": 866,
            "...": 867,
            "Ġthings": 868,
            "ail": 869,
            "ian": 870,
            "Ġcons": 871,
            "ather": 872,
            "Ġeach": 873,
            "Ġlook": 874,
            "ft": 875,
            "Ġmuch": 876,
            "Ġtake": 877,
            "Ġplay": 878,
            "ark": 879,
            "self": 880,
            "ug": 881,
            "Ġstr": 882,
            "Ġvery": 883,
            "be": 884,
            "Ġco": 885,
            "Ġaround": 886,
            "Ġworld": 887,
            "Ġstart": 888,
            "ual": 889,
            "ates": 890,
            "Ġdoes": 891,
            "ject": 892,
            "Ġtal": 893,
            "alth": 894,
            "mer": 895,
            "Ġuse": 896,
            "Ġgu": 897,
            "Ġrel": 898,
            "tain": 899,
            "tern": 900,
            "ib": 901,
            "Ġsur": 902,
            "Ġlittle": 903,
            "Ġpo": 904,
            "Al": 905,
            "Ġbel": 906,
            "In": 907,
            "Ġgoing": 908,
            "Ġac": 909,
            "ew": 910,
            "Ġcome": 911,
            "led": 912,
            "ange": 913,
            "ually": 914,
            "That": 915,
            "Oh": 916,
            "rain": 917,
            "way": 918,
            "ody": 919,
            "Ġmost": 920,
            "Ġwr": 921,
            "gr": 922,
            "Ġshould": 923,
            "ract": 924,
            ",\\\"": 925,
            "Ġinst": 926,
            "Ġcar": 927,
            "ied": 928,
            "Ġmean": 929,
            "ĠV": 930,
            "ower": 931,
            "gether": 932,
            "ever": 933,
            "Ġtogether": 934,
            "Ġexper": 935,
            "Ġlong": 936,
            "ning": 937,
            "ren": 938,
            "ular": 939,
            "thing": 940,
            "ics": 941,
            "Ġown": 942,
            "Ġmade": 943,
            "erm": 944,
            "Ġused": 945,
            "hes": 946,
            "Ġreal": 947,
            "Ġimport": 948,
            "ny": 949,
            "oss": 950,
            "ments": 951,
            "lud": 952,
            "So": 953,
            "Ġfam": 954,
            "ph": 955,
            "gan": 956,
            "ible": 957,
            "Ġob": 958,
            "ward": 959,
            "Ġagain": 960,
            "Ġpers": 961,
            "ĠBut": 962,
            "Ġlife": 963,
            "Ġbeing": 964,
            "Ġchild": 965,
            "ween": 966,
            "Ġcreat": 967,
            "Ġrep": 968,
            "Ġins": 969,
            "cess": 970,
            "Ġthought": 971,
            "Ġfound": 972,
            "ath": 973,
            "Well": 974,
            "chool": 975,
            "Ġyears": 976,
            "Ġinv": 977,
            "Ġreg": 978,
            "Ġcount": 979,
            "my": 980,
            "Ġbetween": 981,
            "na": 982,
            "ĠYou": 983,
            "ness": 984,
            "Ġfriends": 985,
            "Ġser": 986,
            "ĠAnd": 987,
            "Ġeff": 988,
            "Ġduring": 989,
            "Ġwater": 990,
            "ited": 991,
            "ty": 992,
            "its": 993,
            "ared": 994,
            "Ġgen": 995,
            "Ġtell": 996,
            "Ġsupp": 997,
            "old": 998,
            "Ġinte": 999,
            "ps": 1000,
            "Ġadd": 1001,
            "velop": 1002,
            "akes": 1003,
            "lic": 1004,
            "Ġsk": 1005,
            "ric": 1006,
            "Ġread": 1007,
            "Ġshow": 1008,
            "Ġ3": 1009,
            "here": 1010,
            "Ġcr": 1011,
            "ĠUn": 1012,
            "day": 1013,
            "Ġbetter": 1014,
            "ident": 1015,
            "ative": 1016,
            "Ġcommun": 1017,
            "ways": 1018,
            "Ġset": 1019,
            "Ġsim": 1020,
            "Ġhand": 1021,
            "ars": 1022,
            "\\/": 1023,
            "Ġwhy": 1024,
            "Ġcare": 1025,
            "nce": 1026,
            "Ġinclud": 1027,
            "**": 1028,
            "Ġreally": 1029,
            "This": 1030,
            "ss": 1031,
            "ec": 1032,
            "stem": 1033,
            "ĠHow": 1034,
            "Ġ'": 1035,
            "ying": 1036,
            "ists": 1037,
            "Alice": 1038,
            "ĠSo": 1039,
            "ĠTh": 1040,
            ",\\": 1041,
            "ased": 1042,
            "Ġhome": 1043,
            "Ġanother": 1044,
            "lect": 1045,
            "li": 1046,
            "Ġloc": 1047,
            "Ġexam": 1048,
            "Ġmet": 1049,
            "air": 1050,
            "Ġdidn": 1051,
            "Ġhealth": 1052,
            "erg": 1053,
            "Ġold": 1054,
            "Ġform": 1055,
            "Ġcur": 1056,
            "Ġgreat": 1057,
            "Ġcre": 1058,
            "ized": 1059,
            "Ġboth": 1060,
            "aw": 1061,
            "Ġstill": 1062,
            "ĠWe": 1063,
            "Ġdevelop": 1064,
            "ead": 1065,
            "?\\\"": 1066,
            "ational": 1067,
            "chn": 1068,
            "Ġimportant": 1069,
            "ix": 1070,
            "gg": 1071,
            "iqu": 1072,
            "ds": 1073,
            "Ġart": 1074,
            "Ġpres": 1075,
            "ility": 1076,
            "Ġsec": 1077,
            "Bob": 1078,
            "Ġsci": 1079,
            "Ġche": 1080,
            "ided": 1081,
            "ature": 1082,
            "Ġnum": 1083,
            "iting": 1084,
            "rest": 1085,
            "ĠAl": 1086,
            "ĠAs": 1087,
            "Ġkeep": 1088,
            "read": 1089,
            "ants": 1090,
            "ines": 1091,
            "Ġsmall": 1092,
            "Ġvar": 1093,
            "Ġent": 1094,
            "Ġgl": 1095,
            "Ġusing": 1096,
            "ened": 1097,
            "Ġschool": 1098,
            "Ġend": 1099,
            "ĠThat": 1100,
            "Ġfun": 1101,
            "Ġalways": 1102,
            "Ġprov": 1103,
            "Ġdi": 1104,
            "Ġdet": 1105,
            "Ġinter": 1106,
            "rib": 1107,
            "Ġph": 1108,
            "Ġmat": 1109,
            "ues": 1110,
            "Ġquest": 1111,
            "Ġlead": 1112,
            "Ġthree": 1113,
            "cept": 1114,
            "Ġplan": 1115,
            "Ġcoll": 1116,
            "How": 1117,
            "arch": 1118,
            "Ġturn": 1119,
            "owing": 1120,
            "Ġsign": 1121,
            "enc": 1122,
            "Ġra": 1123,
            "Ġmo": 1124,
            "ten": 1125,
            "kay": 1126,
            "Ġhigh": 1127,
            "Ġtrans": 1128,
            "anc": 1129,
            "Ġty": 1130,
            "Ġperson": 1131,
            "ize": 1132,
            "Ġbig": 1133,
            "ology": 1134,
            "Ġless": 1135,
            "Ġpat": 1136,
            "Ġear": 1137,
            "Ġval": 1138,
            "Ġprot": 1139,
            "Ġcol": 1140,
            "Ġfood": 1141,
            "Ġhum": 1142,
            "Ġothers": 1143,
            "ages": 1144,
            "Ġev": 1145,
            "Ġmin": 1146,
            "blem": 1147,
            "Ġrese": 1148,
            "Ġeveryone": 1149,
            "ices": 1150,
            "meric": 1151,
            "Yes": 1152,
            "Ġvis": 1153,
            "Ġexperi": 1154,
            "'d": 1155,
            "ural": 1156,
            "ts": 1157,
            "Ġsystem": 1158,
            "Ġlove": 1159,
            "ank": 1160,
            "hip": 1161,
            "Ġhist": 1162,
            "ys": 1163,
            "Th": 1164,
            "Ġsub": 1165,
            "orn": 1166,
            "Ġatt": 1167,
            "aut": 1168,
            "Ġcle": 1169,
            "Ġinf": 1170,
            "Ġkind": 1171,
            "Ġmust": 1172,
            "Ġexp": 1173,
            "aring": 1174,
            "ling": 1175,
            "Ġplace": 1176,
            "ute": 1177,
            "ouse": 1178,
            "Ġever": 1179,
            "Ġmed": 1180,
            "Ġpol": 1181,
            "ember": 1182,
            "Ġproblem": 1183,
            "ories": 1184,
            "Ġput": 1185,
            "Ġspec": 1186,
            "Ġide": 1187,
            "land": 1188,
            "ism": 1189,
            "ax": 1190,
            "Ġbuild": 1191,
            "Ġinform": 1192,
            "Ġnever": 1193,
            "Ġaway": 1194,
            "Ġfact": 1195,
            "Ġtechn": 1196,
            "Ġexc": 1197,
            "ross": 1198,
            "ince": 1199,
            "Ġbelie": 1200,
            "aug": 1201,
            "Ġlo": 1202,
            "Ġsl": 1203,
            "Ġsame": 1204,
            ")\\": 1205,
            "Ġwithout": 1206,
            "ron": 1207,
            "Ġop": 1208,
            "Now": 1209,
            "Ġseem": 1210,
            "),": 1211,
            "und": 1212,
            "ĠMr": 1213,
            "agine": 1214,
            "They": 1215,
            "ĠShe": 1216,
            "Ġmon": 1217,
            "Ġgrou": 1218,
            "Ġtra": 1219,
            "Ġass": 1220,
            "As": 1221,
            "ĠAmeric": 1222,
            "Ġsomeone": 1223,
            "Ġpass": 1224,
            "ety": 1225,
            "Ġsol": 1226,
            "Ġdist": 1227,
            "Ġupon": 1228,
            "ef": 1229,
            "uck": 1230,
            "ex": 1231,
            "eng": 1232,
            "duc": 1233,
            "uss": 1234,
            "Ġlearning": 1235,
            "Ġmus": 1236,
            "ork": 1237,
            "Ġcame": 1238,
            "ĠWhat": 1239,
            "Ġfoll": 1240,
            "ins": 1241,
            "Ġgive": 1242,
            "nect": 1243,
            "Ġnam": 1244,
            "Ġcour": 1245,
            "ution": 1246,
            "Ġfin": 1247,
            "ering": 1248,
            "Ġcent": 1249,
            "Ġland": 1250,
            "Ġbeh": 1251,
            "Ġconf": 1252,
            "Ġsure": 1253,
            "oh": 1254,
            "br": 1255,
            "ee": 1256,
            "ows": 1257,
            "Ġcontin": 1258,
            "Ġprodu": 1259,
            "Ġloo": 1260,
            "Ġasked": 1261,
            "iew": 1262,
            "Ġpartic": 1263,
            "There": 1264,
            "cer": 1265,
            "Ġdoing": 1266,
            "Ġbest": 1267,
            "ential": 1268,
            "lex": 1269,
            "Ġlast": 1270,
            "Ġinterest": 1271,
            "az": 1272,
            "Ġmod": 1273,
            "Ġap": 1274,
            "--------": 1275,
            "ters": 1276,
            "Ġthing": 1277,
            "ĠFor": 1278,
            "Ġtri": 1279,
            "Ġerm": 1280,
            "Ġed": 1281,
            "Ġmaking": 1282,
            "ids": 1283,
            "Ġhard": 1284,
            "ets": 1285,
            "Ġpower": 1286,
            "Ġgra": 1287,
            "Ġoften": 1288,
            "Ġsometimes": 1289,
            "Ġref": 1290,
            "oun": 1291,
            "Ġpoint": 1292,
            "ĠThese": 1293,
            "iron": 1294,
            "less": 1295,
            "Ġspecial": 1296,
            "oney": 1297,
            "Ġlist": 1298,
            "Ġnear": 1299,
            "If": 1300,
            "ently": 1301,
            "Ġlar": 1302,
            "ruct": 1303,
            "Ġ4": 1304,
            "Ġexplain": 1305,
            "Ġeas": 1306,
            "Ġlight": 1307,
            "She": 1308,
            "any": 1309,
            "Ġel": 1310,
            "Ġext": 1311,
            "ense": 1312,
            "onna": 1313,
            "Ġmem": 1314,
            "Ġgener": 1315,
            "Ġmom": 1316,
            "ck": 1317,
            "Ġwithin": 1318,
            "Ġinformation": 1319,
            "ock": 1320,
            "Ġpract": 1321,
            "ives": 1322,
            "pr": 1323,
            "ho": 1324,
            "Ġbus": 1325,
            "Ġlot": 1326,
            "Why": 1327,
            "Ġenough": 1328,
            "Ġchar": 1329,
            "Ġwond": 1330,
            "Ġtreat": 1331,
            "Ġresp": 1332,
            "atch": 1333,
            "Ġwom": 1334,
            "ically": 1335,
            "Ġanim": 1336,
            "Ġsound": 1337,
            "up": 1338,
            "Ġ5": 1339,
            "Ġfamily": 1340,
            "Ġmar": 1341,
            "!\\\"": 1342,
            "iness": 1343,
            "ired": 1344,
            "Ġmeans": 1345,
            "Ġgonna": 1346,
            "Ġbeaut": 1347,
            "Ġexample": 1348,
            "ered": 1349,
            "ined": 1350,
            "Ġappro": 1351,
            "Ġconnect": 1352,
            "One": 1353,
            "Ġdr": 1354,
            "over": 1355,
            "Ġchange": 1356,
            "irl": 1357,
            "ĠBy": 1358,
            "Ġey": 1359,
            "Ġprocess": 1360,
            "ement": 1361,
            "Ġclass": 1362,
            "Ġknown": 1363,
            "ertain": 1364,
            "ately": 1365,
            "Ġposs": 1366,
            "Ġbo": 1367,
            "Ġsit": 1368,
            "Ġstre": 1369,
            "Ġmain": 1370,
            "omm": 1371,
            "Ġchildren": 1372,
            "Ġpub": 1373,
            "ata": 1374,
            "reen": 1375,
            ").": 1376,
            "ique": 1377,
            "Ġmind": 1378,
            "ences": 1379,
            "Ġchang": 1380,
            "ully": 1381,
            "Ġalong": 1382,
            "ished": 1383,
            "Ġthough": 1384,
            "Ġpop": 1385,
            "lease": 1386,
            "ivid": 1387,
            "Ġnamed": 1388,
            "Ġcap": 1389,
            "viron": 1390,
            "Ġwee": 1391,
            "Ġremember": 1392,
            "illed": 1393,
            "io": 1394,
            "Ġequ": 1395,
            "Ġfew": 1396,
            "Ġchall": 1397,
            "selves": 1398,
            "Ġdesign": 1399,
            "Ġsun": 1400,
            "aces": 1401,
            "Ġaff": 1402,
            "Ġbody": 1403,
            "Ġgrow": 1404,
            "Ġrun": 1405,
            "ergy": 1406,
            "Ġbre": 1407,
            "Ġcult": 1408,
            "Ġhead": 1409,
            "ĠAn": 1410,
            "Ġnight": 1411,
            "Ġstand": 1412,
            "ĠWhen": 1413,
            "ale": 1414,
            "Ġeffect": 1415,
            "Ġyoung": 1416,
            "Ġrequ": 1417,
            "Ġcreate": 1418,
            "Ġvarious": 1419,
            "Ġaut": 1420,
            "Ġunt": 1421,
            "Ġteac": 1422,
            "Ġwent": 1423,
            "Ġwanted": 1424,
            "Ġhaving": 1425,
            "Ġstrong": 1426,
            "bs": 1427,
            "Ġdecided": 1428,
            "ection": 1429,
            "erv": 1430,
            "ier": 1431,
            "ases": 1432,
            "Ġbecome": 1433,
            "Ġunderstanding": 1434,
            "Let": 1435,
            "oring": 1436,
            "Ġstudents": 1437,
            "cent": 1438,
            "Ġorgan": 1439,
            "con": 1440,
            "ĠEx": 1441,
            "ield": 1442,
            "bers": 1443,
            "Ġtown": 1444,
            "Ġheart": 1445,
            "ger": 1446,
            "ills": 1447,
            "Ġheard": 1448,
            "Ġname": 1449,
            "Ġfore": 1450,
            "Ġfour": 1451,
            "Ġav": 1452,
            "Ġleft": 1453,
            "ĠOne": 1454,
            "ital": 1455,
            "wards": 1456,
            "gram": 1457,
            "Ġwa": 1458,
            "Ġstarted": 1459,
            "ĠWith": 1460,
            "Ġincre": 1461,
            "aught": 1462,
            "ides": 1463,
            "itions": 1464,
            "ivers": 1465,
            "Ġcourse": 1466,
            "Ġnext": 1467,
            "Ġmakes": 1468,
            "Ġlevel": 1469,
            "hers": 1470,
            "uff": 1471,
            "Ġtalk": 1472,
            "Ġeverything": 1473,
            "ner": 1474,
            "by": 1475,
            "Ġnumber": 1476,
            "angu": 1477,
            "Ġadv": 1478,
            "Ġtoday": 1479,
            "Ġresult": 1480,
            "Ġpot": 1481,
            "ĠTo": 1482,
            "Ġmoney": 1483,
            "Ġsupport": 1484,
            "Ġmove": 1485,
            "ĠAr": 1486,
            "ĠRe": 1487,
            "den": 1488,
            "Ġhistory": 1489,
            "Do": 1490,
            "vironment": 1491,
            "Ġlived": 1492,
            "Ġanything": 1493,
            "Ġmag": 1494,
            "ued": 1495,
            "ted": 1496,
            "Ġuntil": 1497,
            "Ġgirl": 1498,
            "ional": 1499,
            "der": 1500,
            "Ġworking": 1501,
            "Ġfas": 1502,
            "arent": 1503,
            "ope": 1504,
            "to": 1505,
            "Ġ_": 1506,
            "ĠIf": 1507,
            "Ġsw": 1508,
            "Ġindivid": 1509,
            "Ġprom": 1510,
            "Ġcertain": 1511,
            "Ġstudy": 1512,
            "ources": 1513,
            "hap": 1514,
            "no": 1515,
            "ider": 1516,
            "osed": 1517,
            "line": 1518,
            "Ġresearch": 1519,
            "side": 1520,
            "ries": 1521,
            "Ġmeet": 1522,
            "Ġsince": 1523,
            "Ġamong": 1524,
            "rol": 1525,
            "ening": 1526,
            "ote": 1527,
            "Ġopp": 1528,
            "iful": 1529,
            "outh": 1530,
            "ĠHowever": 1531,
            "ient": 1532,
            "Ġactiv": 1533,
            "Ġacross": 1534,
            "overed": 1535,
            "the": 1536,
            "Ġrest": 1537,
            "Ġfar": 1538,
            "Ġpain": 1539,
            "Ġair": 1540,
            "Ġtook": 1541,
            "Ġeng": 1542,
            "Ġagainst": 1543,
            "ason": 1544,
            "Ġtest": 1545,
            "Ġtold": 1546,
            "ike": 1547,
            "Ġscient": 1548,
            "ĠPro": 1549,
            "Ġtimes": 1550,
            "Ġdays": 1551,
            "ilar": 1552,
            "Ġactually": 1553,
            "Ġcaus": 1554,
            "Ġret": 1555,
            "elt": 1556,
            "Ġhouse": 1557,
            "ats": 1558,
            "pend": 1559,
            "actly": 1560,
            "Ġdue": 1561,
            "Ġdata": 1562,
            "orts": 1563,
            "ĠInd": 1564,
            "Ġgroup": 1565,
            "ention": 1566,
            "Ġtry": 1567,
            "hys": 1568,
            "ocus": 1569,
            "Ġcor": 1570,
            "rap": 1571,
            "ĠThere": 1572,
            "irect": 1573,
            "Ġyet": 1574,
            "Ġiss": 1575,
            "ĠIs": 1576,
            "itive": 1577,
            "Ġstop": 1578,
            "Ġinvol": 1579,
            "ĠNo": 1580,
            "Ġtyp": 1581,
            "hile": 1582,
            "Ġisn": 1583,
            "rit": 1584,
            "Ġways": 1585,
            "ality": 1586,
            "Ġbir": 1587,
            "Ġprof": 1588,
            "IN": 1589,
            "ortun": 1590,
            "Ġess": 1591,
            "pected": 1592,
            "Ġtre": 1593,
            "Ġlive": 1594,
            "Ġbit": 1595,
            "]\\": 1596,
            "Ġcommon": 1597,
            "Ġdef": 1598,
            "Ġenergy": 1599,
            "Ġhuman": 1600,
            "ĠCon": 1601,
            "Ġelse": 1602,
            "-s": 1603,
            "Ġunique": 1604,
            "Ġexplore": 1605,
            "Ġquestion": 1606,
            "Ġlocal": 1607,
            "Ġdone": 1608,
            "Ġpos": 1609,
            "ape": 1610,
            "Ġstay": 1611,
            "Ġcell": 1612,
            "inking": 1613,
            "Ġocc": 1614,
            "Ġtrad": 1615,
            "Ġbeautiful": 1616,
            "Ġtop": 1617,
            "Ġlangu": 1618,
            "Ġgiv": 1619,
            "Ġenc": 1620,
            "Ġ6": 1621,
            "Ġdiscuss": 1622,
            "Ġlearned": 1623,
            "Ġes": 1624,
            "Ġwords": 1625,
            "tle": 1626,
            "fully": 1627,
            "Ġdoesn": 1628,
            "ĠMar": 1629,
            "Ġjour": 1630,
            "Ġproject": 1631,
            "Ġwal": 1632,
            "Ġhour": 1633,
            "Ġinstead": 1634,
            "els": 1635,
            "Ġprogram": 1636,
            "gin": 1637,
            "ney": 1638,
            "ination": 1639,
            "Ġimpro": 1640,
            "Ġcomes": 1641,
            "Ġens": 1642,
            "ĠBe": 1643,
            "Ġcountry": 1644,
            "Ġshare": 1645,
            "Ġloved": 1646,
            "Ġident": 1647,
            "Ġelect": 1648,
            "aterial": 1649,
            "?\\\"\\": 1650,
            "Ġhappened": 1651,
            "ians": 1652,
            "Ġbas": 1653,
            "Ġenvironment": 1654,
            "Ġsaw": 1655,
            "man": 1656,
            "Ġfocus": 1657,
            "Ġjo": 1658,
            "oms": 1659,
            "Ġstate": 1660,
            "Ġprotect": 1661,
            "ots": 1662,
            "Ġpur": 1663,
            "ĠNew": 1664,
            "Ġris": 1665,
            "Once": 1666,
            "ury": 1667,
            "ĠSh": 1668,
            "ret": 1669,
            "ĠEng": 1670,
            "joy": 1671,
            "Ġonce": 1672,
            "Ġappe": 1673,
            "ances": 1674,
            "Ġmatter": 1675,
            "Ġpie": 1676,
            "iter": 1677,
            "When": 1678,
            "Ġbring": 1679,
            "Ġsays": 1680,
            "Ġcond": 1681,
            "ried": 1682,
            "Ġpresent": 1683,
            "ĠAd": 1684,
            "orry": 1685,
            "immy": 1686,
            "med": 1687,
            "Ġwon": 1688,
            "amp": 1689,
            "aj": 1690,
            "Ġstory": 1691,
            "magine": 1692,
            "Ġbook": 1693,
            "Ġwasn": 1694,
            "ised": 1695,
            "Don": 1696,
            "Ġgetting": 1697,
            "ĠWell": 1698,
            "com": 1699,
            "Ġquite": 1700,
            "ably": 1701,
            "Ġhelps": 1702,
            "orth": 1703,
            "rop": 1704,
            "Ġve": 1705,
            "Ġans": 1706,
            "Ġtowards": 1707,
            "Ġstories": 1708,
            "Ġcouldn": 1709,
            "Ġrepl": 1710,
            "Ġspecific": 1711,
            "acter": 1712,
            "Ġidea": 1713,
            "Ġchalleng": 1714,
            "ert": 1715,
            "ording": 1716,
            "alf": 1717,
            "Ġmor": 1718,
            "Ġmen": 1719,
            "Ġdra": 1720,
            "avor": 1721,
            "Ġteam": 1722,
            "come": 1723,
            "ency": 1724,
            "Ġbusiness": 1725,
            "Ġincluding": 1726,
            "Ġjob": 1727,
            "Ġmaterial": 1728,
            "Ġele": 1729,
            "Ġconst": 1730,
            "light": 1731,
            "Ġbased": 1732,
            "Ġenjoy": 1733,
            "Ġopen": 1734,
            "me": 1735,
            "Ġlarge": 1736,
            "Ġeduc": 1737,
            "icult": 1738,
            "Ġblood": 1739,
            "Come": 1740,
            "row": 1741,
            "ER": 1742,
            "body": 1743,
            "Ġlooking": 1744,
            "Ġanimals": 1745,
            "ohn": 1746,
            "Ġmil": 1747,
            "Ġsafe": 1748,
            "Ġbegan": 1749,
            "Ġable": 1750,
            "Ġfac": 1751,
            "St": 1752,
            "ĠCan": 1753,
            "Ġkids": 1754,
            "oot": 1755,
            "ĠCl": 1756,
            "Ġcomple": 1757,
            "Ġdise": 1758,
            "ccess": 1759,
            "Ġmusic": 1760,
            "Ġest": 1761,
            "ĠJust": 1762,
            "Ġask": 1763,
            "Is": 1764,
            "Ġdiff": 1765,
            "Ġbelieve": 1766,
            "vern": 1767,
            "iversity": 1768,
            "Ġcity": 1769,
            "Mm": 1770,
            "ĠSp": 1771,
            "Ġcommunity": 1772,
            "Ġcal": 1773,
            "Ġfive": 1774,
            "All": 1775,
            "Ġwind": 1776,
            "Ġsever": 1777,
            "Ġsecond": 1778,
            "Ġsing": 1779,
            "Ġinside": 1780,
            "Ġproper": 1781,
            "Ġknew": 1782,
            "Ġyourself": 1783,
            "aper": 1784,
            "My": 1785,
            "Ġfelt": 1786,
            "Ġdem": 1787,
            "Ġmiss": 1788,
            "Ġboy": 1789,
            "ision": 1790,
            "Ġben": 1791,
            "Ġnat": 1792,
            "Ġri": 1793,
            "Ġtem": 1794,
            "ĠGod": 1795,
            "ples": 1796,
            "Ġquick": 1797,
            "Ġtrying": 1798,
            "ash": 1799,
            "Ġpublic": 1800,
            "Ġsignific": 1801,
            "ths": 1802,
            "Ġdep": 1803,
            "Hey": 1804,
            "cl": 1805,
            "ledge": 1806,
            "Ġseen": 1807,
            "Ġliving": 1808,
            "ior": 1809,
            "Ġsocial": 1810,
            "Ġcomput": 1811,
            "Ġclose": 1812,
            "ced": 1813,
            "app": 1814,
            "Ġfollow": 1815,
            "-f": 1816,
            "Ġphys": 1817,
            "Ġbecame": 1818,
            "Just": 1819,
            "cle": 1820,
            "Ġgovern": 1821,
            "Ġclear": 1822,
            "Ġmother": 1823,
            "Ġtaking": 1824,
            "ards": 1825,
            "Ġstep": 1826,
            "Ġarea": 1827,
            "ooks": 1828,
            "ĠDe": 1829,
            "Okay": 1830,
            "Ġsym": 1831,
            "Ġpast": 1832,
            "ither": 1833,
            "ains": 1834,
            "Ġexperience": 1835,
            "Ġeyes": 1836,
            "ĠLet": 1837,
            "Ġaffect": 1838,
            "cin": 1839,
            "Ġside": 1840,
            "oud": 1841,
            "rist": 1842,
            "Ġpar": 1843,
            "Ġplaying": 1844,
            "ral": 1845,
            "Ġlaw": 1846,
            "ames": 1847,
            "aves": 1848,
            "ton": 1849,
            "Ġsugg": 1850,
            "Ġsuggest": 1851,
            "Ġfull": 1852,
            "Ġseveral": 1853,
            "ched": 1854,
            "uro": 1855,
            "ĠBen": 1856,
            "Ġmanag": 1857,
            "Ġtalking": 1858,
            "ane": 1859,
            "ients": 1860,
            "Ġearly": 1861,
            "lish": 1862,
            "Ġdev": 1863,
            "ern": 1864,
            "Ġparticular": 1865,
            "Ġhold": 1866,
            "Ġdirect": 1867,
            "osp": 1868,
            "Ġmill": 1869,
            "Ġterm": 1870,
            "Ġnothing": 1871,
            "Ġthemselves": 1872,
            "ogn": 1873,
            "Ġago": 1874,
            "imate": 1875,
            "ready": 1876,
            "Ġaw": 1877,
            "Ġsoon": 1878,
            "ream": 1879,
            "ĠAt": 1880,
            "ony": 1881,
            "ery": 1882,
            "Ġwomen": 1883,
            "Ġdeep": 1884,
            "cially": 1885,
            "ulation": 1886,
            "Ġobs": 1887,
            "ĠPl": 1888,
            "ĠMay": 1889,
            "ĠAmerican": 1890,
            "ones": 1891,
            "hod": 1892,
            "ma": 1893,
            "inal": 1894,
            "Ġlater": 1895,
            "Ġface": 1896,
            "Ġexplained": 1897,
            "Ġyes": 1898,
            "gs": 1899,
            "Ġscience": 1900,
            "To": 1901,
            "Ġsimilar": 1902,
            "Ġwhole": 1903,
            "Ġfur": 1904,
            "Ġfig": 1905,
            "__": 1906,
            "Ġprep": 1907,
            "itional": 1908,
            "ille": 1909,
            "ured": 1910,
            "work": 1911,
            "Ġquestions": 1912,
            "Ġtool": 1913,
            "Ġfree": 1914,
            "Ġbad": 1915,
            "Ġreport": 1916,
            "ization": 1917,
            "Ġcoming": 1918,
            "Ġpri": 1919,
            "Ġserv": 1920,
            "Ġdri": 1921,
            "ateg": 1922,
            "Ġword": 1923,
            "ĠSam": 1924,
            "oura": 1925,
            "Ġalready": 1926,
            "Ġcontrol": 1927,
            "Ġpict": 1928,
            "anks": 1929,
            "Ġlooked": 1930,
            "Ġobject": 1931,
            "Ġperform": 1932,
            "lf": 1933,
            "Ġlives": 1934,
            "Ġnature": 1935,
            "fect": 1936,
            "Ġ.\\": 1937,
            "Ġbro": 1938,
            "Not": 1939,
            "Ġparent": 1940,
            "uture": 1941,
            "Ġwhether": 1942,
            "Ġpay": 1943,
            "Ġroom": 1944,
            "Ġworks": 1945,
            "Ġallow": 1946,
            "ina": 1947,
            "ication": 1948,
            "Ġmeas": 1949,
            "Ġsitu": 1950,
            "ĠOh": 1951,
            "Ġdiscovered": 1952,
            "Ġrepres": 1953,
            "tend": 1954,
            "iod": 1955,
            "Ġansw": 1956,
            "utes": 1957,
            "Ġwarm": 1958,
            "rent": 1959,
            "Ġplants": 1960,
            "Ġpossible": 1961,
            "iced": 1962,
            "Ġknowledge": 1963,
            "Er": 1964,
            "izing": 1965,
            "Ġproduct": 1966,
            "Ġfavor": 1967,
            "OU": 1968,
            "Ġproblems": 1969,
            "ĠSome": 1970,
            "-b": 1971,
            "tep": 1972,
            "Ġsuccess": 1973,
            "port": 1974,
            "Ġsense": 1975,
            "Ġbehind": 1976,
            "right": 1977,
            "Ġdifficult": 1978,
            "though": 1979,
            "ili": 1980,
            "Ġrealized": 1981,
            "Ġtype": 1982,
            "Ġokay": 1983,
            "Ġlanguage": 1984,
            "ik": 1985,
            "Ġcool": 1986,
            "Ġneeded": 1987,
            "ĠJohn": 1988,
            "Ġdeterm": 1989,
            "Ġ7": 1990,
            "tem": 1991,
            "Ġplant": 1992,
            "ability": 1993,
            "Ġskills": 1994,
            "use": 1995,
            "iding": 1996,
            "ental": 1997,
            "Ġsle": 1998,
            "ption": 1999,
            "ium": 2000,
            "Ġneeds": 2001,
            "arc": 2002,
            "Ġanal": 2003,
            "Ġtrue": 2004,
            "reed": 2005,
            "Ġpress": 2006,
            "ĠOr": 2007,
            "Ġinfl": 2008,
            "ĠDr": 2009,
            "Ġexactly": 2010,
            "ules": 2011,
            "Ġfather": 2012,
            "Ġsignificant": 2013,
            "Ġhalf": 2014,
            "Ġspace": 2015,
            "conom": 2016,
            "ĠTimmy": 2017,
            "Ġview": 2018,
            "where": 2019,
            "Ġbrain": 2020,
            "Ġareas": 2021,
            "hor": 2022,
            "Ġwrong": 2023,
            "Ġrespons": 2024,
            "Ġrespect": 2025,
            "Ġshort": 2026,
            "ĠAll": 2027,
            "Ġfield": 2028,
            "Ġfuture": 2029,
            "!\\\"\\": 2030,
            "For": 2031,
            "Ġessential": 2032,
            "verse": 2033,
            "Ġcut": 2034,
            "Ġoutside": 2035,
            "Ġpost": 2036,
            "ĠBob": 2037,
            "sc": 2038,
            "view": 2039,
            "ĠFr": 2040,
            "Ġharm": 2041,
            "aster": 2042,
            "ctor": 2043,
            "por": 2044,
            "sy": 2045,
            "ged": 2046,
            "Ġmess": 2047,
            "Ġyeah": 2048,
            "Ġwar": 2049,
            "Ġsn": 2050,
            "Ġmoment": 2051,
            "ĠCom": 2052,
            "Ġorig": 2053,
            "Ġones": 2054,
            "Ġdevelopment": 2055,
            "Ġweek": 2056,
            "Ġcomb": 2057,
            "rew": 2058,
            "Ġbuilding": 2059,
            "Where": 2060,
            "ator": 2061,
            "idence": 2062,
            "abor": 2063,
            "Ġfil": 2064,
            "erc": 2065,
            "pite": 2066,
            "Ġground": 2067,
            "Ġ8": 2068,
            "Ġmethod": 2069,
            "Ġprovide": 2070,
            "Ġage": 2071,
            "Ġthroughout": 2072,
            "Ġinvest": 2073,
            "HE": 2074,
            "Ġthinking": 2075,
            "duced": 2076,
            "most": 2077,
            "-d": 2078,
            "An": 2079,
            "pecially": 2080,
            "ĠQ": 2081,
            "Ġnatural": 2082,
            "Ġtechnology": 2083,
            "ĠEm": 2084,
            "aken": 2085,
            "Ġaccess": 2086,
            "uals": 2087,
            "Ġtravel": 2088,
            "Ġtrain": 2089,
            "cient": 2090,
            "idd": 2091,
            "Ġfascin": 2092,
            "Ġjourney": 2093,
            "Ġmark": 2094,
            "oint": 2095,
            "Ġcreating": 2096,
            "omes": 2097,
            "Ġcase": 2098,
            "ush": 2099,
            "Ġadvent": 2100,
            "Ġsaying": 2101,
            "Ġrece": 2102,
            "Ġvalu": 2103,
            "ung": 2104,
            "iet": 2105,
            "iny": 2106,
            "Ġhappy": 2107,
            "Who": 2108,
            "Ġprofess": 2109,
            "Ġrather": 2110,
            "Ġsix": 2111,
            "Ġleave": 2112,
            "Ġimagine": 2113,
            "Ġconsider": 2114,
            "fd": 2115,
            "Ex": 2116,
            "ify": 2117,
            "Ġgame": 2118,
            "Ġwatch": 2119,
            "Ġstruct": 2120,
            "Ġresources": 2121,
            "ining": 2122,
            "Ġopportun": 2123,
            "umb": 2124,
            "Ġshared": 2125,
            "Ġcost": 2126,
            "Ġconcer": 2127,
            "Ġ**": 2128,
            "Ġfall": 2129,
            "ĠAfter": 2130,
            "Ġinclude": 2131,
            "Ġcolor": 2132,
            "Ġwonder": 2133,
            "Ġlim": 2134,
            "acy": 2135,
            "ump": 2136,
            "ĠEar": 2137,
            "pped": 2138,
            "ĠChrist": 2139,
            "AN": 2140,
            "Ġsort": 2141,
            "Ġself": 2142,
            "ird": 2143,
            "Ġbenef": 2144,
            "Ġvaluable": 2145,
            "Ġimpact": 2146,
            "ified": 2147,
            "Ġill": 2148,
            "Ġcir": 2149,
            "Ġgreen": 2150,
            "Ġphot": 2151,
            "Ġhours": 2152,
            "Ġchanges": 2153,
            "Ġce": 2154,
            "rodu": 2155,
            "atic": 2156,
            "ĠUniversity": 2157,
            "Ġreturn": 2158,
            "Ġsent": 2159,
            "Ġparts": 2160,
            "aving": 2161,
            "ĠRes": 2162,
            "Ġtypes": 2163,
            "Ġbreak": 2164,
            "ĠDo": 2165,
            "Ġcollect": 2166,
            "Ġunex": 2167,
            "Ġste": 2168,
            "urs": 2169,
            "Ġrelations": 2170,
            "itical": 2171,
            "Ġhur": 2172,
            "of": 2173,
            "Ġorder": 2174,
            "Ġtas": 2175,
            "ster": 2176,
            "Ġhope": 2177,
            "ration": 2178,
            "Ġmult": 2179,
            "Ġfight": 2180,
            "Ġsorry": 2181,
            "Ġfilled": 2182,
            "Ġsoci": 2183,
            "soci": 2184,
            "Ġsmo": 2185,
            "Ġavail": 2186,
            "Ġhear": 2187,
            "ĠAf": 2188,
            "Ġline": 2189,
            "Ġfurther": 2190,
            "ĠNow": 2191,
            "Ġfeeling": 2192,
            "ajor": 2193,
            "Ġmaybe": 2194,
            "Ġdisease": 2195,
            "Ġwin": 2196,
            "aim": 2197,
            "Ġpercent": 2198,
            "oice": 2199,
            "Ġeat": 2200,
            "ned": 2201,
            "Ġperfect": 2202,
            "ilt": 2203,
            "Ġsurpr": 2204,
            "Ġpattern": 2205,
            "ĠTe": 2206,
            "rand": 2207,
            "ott": 2208,
            "par": 2209,
            "Ġdesc": 2210,
            "Ġdam": 2211,
            "Ġlow": 2212,
            "iously": 2213,
            "Ġespecially": 2214,
            "Ġmorning": 2215,
            "eed": 2216,
            "ivity": 2217,
            "Ġwouldn": 2218,
            "ilities": 2219,
            "ource": 2220,
            "cum": 2221,
            "Ġeconom": 2222,
            "Ġvisit": 2223,
            "ms": 2224,
            "Ġbegin": 2225,
            "ĠGr": 2226,
            "Ġexpress": 2227,
            "Ġunexpected": 2228,
            "ached": 2229,
            "ĠPr": 2230,
            "-c": 2231,
            "Ġrad": 2232,
            "Ġfavorite": 2233,
            "Ġpaper": 2234,
            "Ġclean": 2235,
            "Ġcomplete": 2236,
            "ĠEn": 2237,
            "Ġoper": 2238,
            "Ġdeal": 2239,
            "Ġprob": 2240,
            "ively": 2241,
            "Ġgiven": 2242,
            "ising": 2243,
            "Ġmot": 2244,
            "Ġchallenges": 2245,
            "Ġcontinued": 2246,
            "Have": 2247,
            "Right": 2248,
            "Ġrecord": 2249,
            "ville": 2250,
            "Ġrole": 2251,
            "ounds": 2252,
            "Ġ9": 2253,
            "Ġonline": 2254,
            "Ġpotential": 2255,
            "ING": 2256,
            "Ġcause": 2257,
            "Ġconcept": 2258,
            "undred": 2259,
            "Ġintern": 2260,
            "ĠInst": 2261,
            "Ġred": 2262,
            "AT": 2263,
            "fort": 2264,
            "Ġcontrib": 2265,
            "Ġcountries": 2266,
            "Ġbab": 2267,
            "Ġant": 2268,
            "Ġcra": 2269,
            "Ġsounds": 2270,
            "Ġgovernment": 2271,
            "ands": 2272,
            "ĠGe": 2273,
            "Did": 2274,
            "not": 2275,
            "ON": 2276,
            "bit": 2277,
            "Ġperiod": 2278,
            "Ġleg": 2279,
            "ring": 2280,
            "Thank": 2281,
            "inary": 2282,
            "Ġter": 2283,
            "Ġremain": 2284,
            "Ġsum": 2285,
            "Ġfell": 2286,
            "Ġnews": 2287,
            "Ġevent": 2288,
            "Ġemot": 2289,
            "Are": 2290,
            "Ġsoft": 2291,
            "Ġfair": 2292,
            "Ġrepresent": 2293,
            "zy": 2294,
            "ĠZ": 2295,
            "Ġbrought": 2296,
            "Ġge": 2297,
            "Ġdeath": 2298,
            "Ġhands": 2299,
            "Ġturned": 2300,
            "ĠWor": 2301,
            "Ġdiv": 2302,
            "-m": 2303,
            "Ch": 2304,
            "ables": 2305,
            "Ġsimple": 2306,
            "urope": 2307,
            "Ġexist": 2308,
            "lished": 2309,
            "Ġleast": 2310,
            "reci": 2311,
            "Ġpolic": 2312,
            "Ġhelped": 2313,
            "Ġda": 2314,
            "ological": 2315,
            "ĠUnited": 2316,
            "Step": 2317,
            "Ġblack": 2318,
            "Ġimprove": 2319,
            "Ġusually": 2320,
            "Ġflow": 2321,
            "Ġdetail": 2322,
            "ĠDes": 2323,
            "ips": 2324,
            "Ġexperiences": 2325,
            "Ġhig": 2326,
            "ĠYes": 2327,
            "Ġbehav": 2328,
            "Ġexploring": 2329,
            "Ġeasy": 2330,
            "Ġfollowing": 2331,
            "lling": 2332,
            "ey": 2333,
            "Look": 2334,
            "Ġparents": 2335,
            "Ġfarm": 2336,
            "Ġprevent": 2337,
            "ecause": 2338,
            "ges": 2339,
            "Ġhundred": 2340,
            "ox": 2341,
            "raph": 2342,
            "Ġsharing": 2343,
            "Ġlay": 2344,
            "enty": 2345,
            "Ġissues": 2346,
            "ĠTr": 2347,
            "Ġrisk": 2348,
            "fer": 2349,
            "Ġnoticed": 2350,
            "ometimes": 2351,
            "Ġamaz": 2352,
            "Ġbi": 2353,
            "Ġplaces": 2354,
            "ĠAlex": 2355,
            "Ġbal": 2356,
            "Ġanyone": 2357,
            "Ġideas": 2358,
            "ived": 2359,
            "With": 2360,
            "Ġnice": 2361,
            "Ġhy": 2362,
            "oose": 2363,
            "Ġavailable": 2364,
            "-p": 2365,
            "gress": 2366,
            "Ġcomplex": 2367,
            "Ġlost": 2368,
            "Ġinteresting": 2369,
            "Ġextra": 2370,
            "haps": 2371,
            "ĠYeah": 2372,
            "asing": 2373,
            "Ġwhite": 2374,
            "Ġgrand": 2375,
            "Ġworked": 2376,
            "like": 2377,
            "ored": 2378,
            "Ġmaintain": 2379,
            "ĠSc": 2380,
            "Ġforest": 2381,
            "Ġbooks": 2382,
            "Ġrelationship": 2383,
            "af": 2384,
            "ĠComm": 2385,
            "Ġquickly": 2386,
            "arr": 2387,
            "ĠAfric": 2388,
            "Ġcontain": 2389,
            "Ġcurrent": 2390,
            "Ġ[": 2391,
            "Then": 2392,
            ").\\": 2393,
            "Ġamount": 2394,
            "Ġcust": 2395,
            "val": 2396,
            "ĠEurope": 2397,
            "Ġwait": 2398,
            "Ġmajor": 2399,
            "ĠBl": 2400,
            "Ġspecies": 2401,
            "Ġactivities": 2402,
            "oid": 2403,
            "Ġfr": 2404,
            "head": 2405,
            "-l": 2406,
            "Can": 2407,
            "ister": 2408,
            "Ġtaken": 2409,
            "Ġresearc": 2410,
            "Ġadm": 2411,
            "Ġbat": 2412,
            "ploy": 2413,
            "eral": 2414,
            "Ġpractice": 2415,
            "Ġdig": 2416,
            "ront": 2417,
            "Ġlevels": 2418,
            "Ġcells": 2419,
            "Ġfire": 2420,
            "Ġsuper": 2421,
            "ires": 2422,
            "cul": 2423,
            "Ġeither": 2424,
            "Ġ&": 2425,
            "Ġplease": 2426,
            "Ġindividuals": 2427,
            "Ġfascinating": 2428,
            "Ġreason": 2429,
            "ouble": 2430,
            "ĠSe": 2431,
            "Ġappreci": 2432,
            "ites": 2433,
            "Ġtree": 2434,
            "Ġinit": 2435,
            "ĠOn": 2436,
            "Ġsal": 2437,
            "got": 2438,
            "ially": 2439,
            "chie": 2440,
            "Ġ$": 2441,
            "Ġreplied": 2442,
            "ae": 2443,
            "Ġpersonal": 2444,
            "Ġsens": 2445,
            "Ġgroups": 2446,
            "isc": 2447,
            "Ġvill": 2448,
            "Sh": 2449,
            "ison": 2450,
            "Ġcreated": 2451,
            "Ġentire": 2452,
            "Ġgrowth": 2453,
            "Ġsqu": 2454,
            "arah": 2455,
            "Ġtext": 2456,
            "Ġcharacter": 2457,
            "-t": 2458,
            "Ġkill": 2459,
            "ĠEarth": 2460,
            "utions": 2461,
            "Ġnecess": 2462,
            "Ġrecogn": 2463,
            "Ġeducation": 2464,
            "Ġz": 2465,
            "eds": 2466,
            "Ġopt": 2467,
            "Ġoffic": 2468,
            "ES": 2469,
            "Ġhimself": 2470,
            "icated": 2471,
            "Ġalmost": 2472,
            "ĠStates": 2473,
            "arl": 2474,
            "Ġvir": 2475,
            "At": 2476,
            "icle": 2477,
            "tered": 2478,
            "Ġhot": 2479,
            "Ġnon": 2480,
            "Ġready": 2481,
            "Your": 2482,
            "son": 2483,
            "Ġalone": 2484,
            "Ġpret": 2485,
            "Ġeight": 2486,
            "une": 2487,
            "ude": 2488,
            "Ġwoman": 2489,
            "On": 2490,
            "ĠAm": 2491,
            "rig": 2492,
            "Ġlate": 2493,
            "Ġkey": 2494,
            "Ġlessons": 2495,
            "gen": 2496,
            "Ġstreng": 2497,
            "Ġcurious": 2498,
            "ĠYork": 2499,
            ".S": 2500,
            "Ġsleep": 2501,
            "Ġinflu": 2502,
            "ging": 2503,
            "ios": 2504,
            "Ġhistor": 2505,
            "ley": 2506,
            "olution": 2507,
            "Ġspread": 2508,
            "ises": 2509,
            "ift": 2510,
            "Ġmembers": 2511,
            "Ġmonths": 2512,
            "Good": 2513,
            "Ġaccording": 2514,
            "erve": 2515,
            "Ġmaterials": 2516,
            "Ġtemper": 2517,
            "ighb": 2518,
            "ĠHis": 2519,
            "Ġcommunities": 2520,
            "ĠYour": 2521,
            "ĠAmerica": 2522,
            "Ġsingle": 2523,
            "Ġsurf": 2524,
            "Ġsystems": 2525,
            "Ġdraw": 2526,
            "Ġgoes": 2527,
            "ights": 2528,
            "eter": 2529,
            "Ġauthor": 2530,
            "Ġtools": 2531,
            "Ġsir": 2532,
            "ĠMy": 2533,
            "aced": 2534,
            "astic": 2535,
            "ĠCent": 2536,
            "Ġhappen": 2537,
            "ĠWhile": 2538,
            "Ġmach": 2539,
            "Ġconvers": 2540,
            "Ġabs": 2541,
            "ches": 2542,
            "Ġreading": 2543,
            "Ġfine": 2544,
            "Be": 2545,
            "Ġnut": 2546,
            "ĠEven": 2547,
            "nces": 2548,
            "Ġmyself": 2549,
            "iction": 2550,
            "Ġevents": 2551,
            "Ġmillion": 2552,
            "Ġhealthy": 2553,
            "Ġvari": 2554,
            "atures": 2555,
            "Ġworry": 2556,
            "Ġconditions": 2557,
            "Ġindust": 2558,
            "Ġbar": 2559,
            "Ġarri": 2560,
            "Ġminutes": 2561,
            "Ġstrateg": 2562,
            "ibility": 2563,
            "Ġpretty": 2564,
            "Ġann": 2565,
            "----------------": 2566,
            "Ġresearchers": 2567,
            "ze": 2568,
            "Ġled": 2569,
            "ns": 2570,
            "Ġseemed": 2571,
            "Ġprobably": 2572,
            "itle": 2573,
            "ĠPh": 2574,
            "Ġthous": 2575,
            "Ġnorm": 2576,
            "Ġhaven": 2577,
            "ule": 2578,
            "Here": 2579,
            "ped": 2580,
            "rough": 2581,
            "Ġprop": 2582,
            "iled": 2583,
            "nderstand": 2584,
            "ems": 2585,
            "Ġensure": 2586,
            "hem": 2587,
            "Ġscientists": 2588,
            "##": 2589,
            "sych": 2590,
            "Ġneighb": 2591,
            "ĠPe": 2592,
            "round": 2593,
            "ĠLe": 2594,
            "Ġcomputer": 2595,
            "!\"}Ċ": 2596,
            "Ġencoura": 2597,
            "Ġinsp": 2598,
            "ĠEnglish": 2599,
            "Ġtrees": 2600,
            "Ġbreat": 2601,
            "Ġsuff": 2602,
            "Ġson": 2603,
            "inci": 2604,
            "Ġgave": 2605,
            "Ġdead": 2606,
            "aid": 2607,
            "Mr": 2608,
            "uz": 2609,
            "lying": 2610,
            "Ġfunction": 2611,
            "Ġswe": 2612,
            "Ġvol": 2613,
            "anger": 2614,
            "ĠHer": 2615,
            "Ġhappens": 2616,
            "Ġcancer": 2617,
            "Ġfeelings": 2618,
            "Ġguess": 2619,
            "ming": 2620,
            "ene": 2621,
            "Ġspir": 2622,
            "Ġoil": 2623,
            "rugg": 2624,
            "Ġattention": 2625,
            "Ġabove": 2626,
            "Ġimm": 2627,
            "Ġdream": 2628,
            "for": 2629,
            "let": 2630,
            "oday": 2631,
            "May": 2632,
            "ators": 2633,
            "itting": 2634,
            "ont": 2635,
            "Ġwild": 2636,
            "Ġaccount": 2637,
            "ission": 2638,
            "Ġaspect": 2639,
            "ĠMe": 2640,
            "Ġaddress": 2641,
            "rect": 2642,
            "Ġanswer": 2643,
            "Ġamazing": 2644,
            "Imagine": 2645,
            "Ġten": 2646,
            "Ġaren": 2647,
            "Ġdepend": 2648,
            "Ġindividual": 2649,
            "Ġnumbers": 2650,
            "Ġglob": 2651,
            "oor": 2652,
            "Ġtrust": 2653,
            "mm": 2654,
            "unch": 2655,
            "yond": 2656,
            "Ġcompany": 2657,
            "Ġpositive": 2658,
            "Ġtakes": 2659,
            "ok": 2660,
            "Ġcru": 2661,
            "Ġphysical": 2662,
            "ĠNational": 2663,
            "Ġwood": 2664,
            "Ġassoci": 2665,
            "denly": 2666,
            "odies": 2667,
            "Ġsat": 2668,
            "Ġgard": 2669,
            "Ġchem": 2670,
            "ler": 2671,
            "ode": 2672,
            "iddle": 2673,
            "etic": 2674,
            "anced": 2675,
            "Ġdark": 2676,
            "ades": 2677,
            "Ġrules": 2678,
            "Ġrain": 2679,
            "Ġsad": 2680,
            "apt": 2681,
            "ilies": 2682,
            "Ġpiece": 2683,
            "icro": 2684,
            ".,": 2685,
            "Ġround": 2686,
            "Ġsubject": 2687,
            "dy": 2688,
            "Ġresults": 2689,
            "Ġremind": 2690,
            "Ġcentury": 2691,
            "ĠWorld": 2692,
            "oes": 2693,
            "Ġvide": 2694,
            "ta": 2695,
            "ether": 2696,
            "ĠWar": 2697,
            "Ġregular": 2698,
            "eth": 2699,
            "ĠHave": 2700,
            "Ġoccur": 2701,
            "Ġgets": 2702,
            "Ġriver": 2703,
            "ply": 2704,
            "hood": 2705,
            "Ġspeak": 2706,
            "urb": 2707,
            "room": 2708,
            "iques": 2709,
            "Ġroad": 2710,
            "ĠBenny": 2711,
            "Ġpopular": 2712,
            "Ġengine": 2713,
            "dom": 2714,
            "ĠGreat": 2715,
            "Ġregard": 2716,
            "Ġimportance": 2717,
            "Ġwise": 2718,
            "Ġdear": 2719,
            "Ġball": 2720,
            "Ġbeyond": 2721,
            "Ġpath": 2722,
            "itten": 2723,
            "Ġsex": 2724,
            "Ġadventure": 2725,
            "AR": 2726,
            "Ġslow": 2727,
            "Ġdoor": 2728,
            "artment": 2729,
            "Go": 2730,
            "Ġice": 2731,
            "ĠThen": 2732,
            "OR": 2733,
            "inally": 2734,
            "nding": 2735,
            "ĠHey": 2736,
            "Ġrelig": 2737,
            "hel": 2738,
            "Ġdest": 2739,
            "illy": 2740,
            "sh": 2741,
            "Ġ,": 2742,
            "Ġfru": 2743,
            "Ġang": 2744,
            "Ġstrugg": 2745,
            "Ġhowever": 2746,
            "Ġwide": 2747,
            "Ah": 2748,
            "Ġtreatment": 2749,
            "Get": 2750,
            "ograp": 2751,
            "kn": 2752,
            "Ġcop": 2753,
            "ĠTheir": 2754,
            "Ġheav": 2755,
            "istic": 2756,
            "AS": 2757,
            "Ġtable": 2758,
            "ounc": 2759,
            "Ġachie": 2760,
            "Ġmodern": 2761,
            "Ġet": 2762,
            "Ġparticip": 2763,
            "Ġfre": 2764,
            "rel": 2765,
            "Ġredu": 2766,
            "ello": 2767,
            "uth": 2768,
            "Ġhor": 2769,
            "Ġhigher": 2770,
            "Ġshop": 2771,
            "Ġlisten": 2772,
            "Ġcapt": 2773,
            "Ġgas": 2774,
            "uly": 2775,
            "str": 2776,
            "Ġtiny": 2777,
            "ams": 2778,
            "elcome": 2779,
            "Ġinteract": 2780,
            "Re": 2781,
            "Ġfoot": 2782,
            "Ġhu": 2783,
            "Ġgone": 2784,
            "Ġ*": 2785,
            "Ġmeant": 2786,
            "Ġmass": 2787,
            "Ġpred": 2788,
            "Ġadded": 2789,
            "Ġexpect": 2790,
            "Ġculture": 2791,
            "ĠNot": 2792,
            "Ġrequire": 2793,
            "Ġclos": 2794,
            "ience": 2795,
            "hern": 2796,
            "Ġbaby": 2797,
            "Ġdru": 2798,
            "ole": 2799,
            "Ġlonger": 2800,
            "Ġbed": 2801,
            "sing": 2802,
            "Ġbuilt": 2803,
            "Ġemb": 2804,
            "-h": 2805,
            "Ġexciting": 2806,
            "acks": 2807,
            "ĠGu": 2808,
            "Ġwants": 2809,
            "Ġemp": 2810,
            "Ġestab": 2811,
            "Ġmeaning": 2812,
            "Ġ=": 2813,
            "Ġcompet": 2814,
            "Ġhon": 2815,
            "Ġseems": 2816,
            "Ġlikely": 2817,
            "olute": 2818,
            "ager": 2819,
            "Ġhumans": 2820,
            "lebr": 2821,
            "amm": 2822,
            "ĠImagine": 2823,
            "Ġeye": 2824,
            "Ġshows": 2825,
            "Ġsunny": 2826,
            "Ġfeet": 2827,
            "ĠNorth": 2828,
            "ograph": 2829,
            "Ġaccept": 2830,
            "Ġsud": 2831,
            "Ġsoil": 2832,
            "resh": 2833,
            "Ġinvolved": 2834,
            "Ġpatterns": 2835,
            "wo": 2836,
            "Ġtried": 2837,
            "Ġtot": 2838,
            "rict": 2839,
            "Ġrele": 2840,
            "ĠSarah": 2841,
            "Ġstra": 2842,
            "lo": 2843,
            "orrow": 2844,
            "ĠMed": 2845,
            "Ġexerc": 2846,
            "Ġarg": 2847,
            "ĠMax": 2848,
            "ĠAlice": 2849,
            "isions": 2850,
            "ai": 2851,
            "Ġstuff": 2852,
            "\\uff": 2853,
            "Ġmedical": 2854,
            "Ġnet": 2855,
            "Ġclimate": 2856,
            "ruction": 2857,
            "Ġcat": 2858,
            "Ġbur": 2859,
            "ĠNe": 2860,
            "ogether": 2861,
            "Ġcheck": 2862,
            "Ġvalue": 2863,
            "agn": 2864,
            "Ġpassed": 2865,
            "Ġsaf": 2866,
            "Ġdive": 2867,
            "Ġteaching": 2868,
            "Ġshap": 2869,
            "Ġcolle": 2870,
            "ĠGeor": 2871,
            "ĠLily": 2872,
            "Ġdiscover": 2873,
            "IS": 2874,
            "Ġfast": 2875,
            "Ġbrother": 2876,
            "Ġlooks": 2877,
            "Ġforward": 2878,
            "aughter": 2879,
            "Ġdaily": 2880,
            "Ġconsum": 2881,
            "Ġsituation": 2882,
            "Ġgames": 2883,
            "Ġstore": 2884,
            "Ġfamilies": 2885,
            "Ġcold": 2886,
            "ĠBrit": 2887,
            "Ġearth": 2888,
            "Ġfa": 2889,
            "atory": 2890,
            "ĠSometimes": 2891,
            "ĠCal": 2892,
            "Ġchance": 2893,
            "Ġfinding": 2894,
            "Ġfront": 2895,
            "Ġemploy": 2896,
            "Ġsea": 2897,
            "Ġbox": 2898,
            "Ġitself": 2899,
            "Ġsil": 2900,
            "ĠSouth": 2901,
            "Ġadult": 2902,
            "ĠSy": 2903,
            "Ġaction": 2904,
            "Ġsurround": 2905,
            "Chap": 2906,
            "Ġwrite": 2907,
            "Ġlab": 2908,
            "Ġthoughts": 2909,
            "By": 2910,
            "Ġarch": 2911,
            "Erm": 2912,
            "ĠMrs": 2913,
            "Ġcou": 2914,
            "ief": 2915,
            "Ġskin": 2916,
            "Ġmix": 2917,
            "Ġsurv": 2918,
            "Ġwondered": 2919,
            "Ġmarket": 2920,
            "rum": 2921,
            "ann": 2922,
            "Ġliter": 2923,
            "Ġfund": 2924,
            "Ġshowed": 2925,
            "Ġcover": 2926,
            "Ġsepar": 2927,
            "Ġbuy": 2928,
            "ĠFl": 2929,
            "Ġcarry": 2930,
            "Chapter": 2931,
            "uel": 2932,
            "Ġsize": 2933,
            "Ġwriting": 2934,
            "Ġincrease": 2935,
            "nov": 2936,
            "Ġgrowing": 2937,
            "Ġappear": 2938,
            "Ġcustom": 2939,
            "Welcome": 2940,
            "Ġwall": 2941,
            "bo": 2942,
            "Ġdespite": 2943,
            "Ġfactors": 2944,
            "Ġfish": 2945,
            "oke": 2946,
            "yle": 2947,
            "Ġfigure": 2948,
            "medi": 2949,
            "Because": 2950,
            "Every": 2951,
            "ait": 2952,
            "Ġbelow": 2953,
            "Ġcelebr": 2954,
            "Ġcomfort": 2955,
            "Ġpowerful": 2956,
            "LL": 2957,
            "Ġprogress": 2958,
            "Ġstudies": 2959,
            "oming": 2960,
            "Ġlad": 2961,
            "Ġoffer": 2962,
            "Ġsurface": 2963,
            "Ġevidence": 2964,
            "Ġquality": 2965,
            "itch": 2966,
            "Ġasking": 2967,
            "aries": 2968,
            "more": 2969,
            "urity": 2970,
            "Ġsimply": 2971,
            "\\ufffd": 2972,
            "Ġvers": 2973,
            "oles": 2974,
            "emember": 2975,
            "ishing": 2976,
            "usion": 2977,
            "Ġleaving": 2978,
            "Ġgeneral": 2979,
            "Ġpopulation": 2980,
            "Ġhelping": 2981,
            "Ġgain": 2982,
            "rench": 2983,
            "Ġcolors": 2984,
            "iment": 2985,
            "Ġpoor": 2986,
            "Ġaware": 2987,
            "Ġsafety": 2988,
            "nal": 2989,
            "Ġtechniques": 2990,
            "Ġexcited": 2991,
            "|\\": 2992,
            "aff": 2993,
            "Ġbright": 2994,
            "-w": 2995,
            "ese": 2996,
            "pping": 2997,
            "Ġchoose": 2998,
            "Ġdocum": 2999,
            "Ġincred": 3000,
            "put": 3001,
            "Ġfail": 3002,
            "ara": 3003,
            "Ġweeks": 3004,
            "Ġprim": 3005,
            "Ġscientific": 3006,
            "ici": 3007,
            "ama": 3008,
            "Ġblue": 3009,
            "bon": 3010,
            "Ġtou": 3011,
            "Ġking": 3012,
            "Ġcarefully": 3013,
            "fl": 3014,
            "Ġtraditional": 3015,
            "Ġprinci": 3016,
            "Ġphone": 3017,
            "Ġcy": 3018,
            "Ġpriv": 3019,
            "Ġperhaps": 3020,
            "Ġsong": 3021,
            "oon": 3022,
            "ĠAb": 3023,
            "ervation": 3024,
            "Ġthreat": 3025,
            "Ġstress": 3026,
            "reek": 3027,
            "Ġpressure": 3028,
            "Ġguy": 3029,
            "Ġmedic": 3030,
            "Ġpurp": 3031,
            "Ġapplic": 3032,
            "go": 3033,
            "ĠMan": 3034,
            "ĠBr": 3035,
            "Ġcompl": 3036,
            "Ġhair": 3037,
            "Ġdoctor": 3038,
            "Ġourselves": 3039,
            "Ġpack": 3040,
            "ĠWhy": 3041,
            "ouncil": 3042,
            "Ġcamp": 3043,
            "cious": 3044,
            "Ġgirls": 3045,
            "Ġdelic": 3046,
            "odd": 3047,
            "ivil": 3048,
            "apan": 3049,
            "Ġmeeting": 3050,
            "overy": 3051,
            "Ġknows": 3052,
            "acing": 3053,
            "urch": 3054,
            "gest": 3055,
            "Ġcannot": 3056,
            "Ġrunning": 3057,
            "Ġtom": 3058,
            "ĠUS": 3059,
            "Ġcorn": 3060,
            "Ġstri": 3061,
            "ulations": 3062,
            "Ġsite": 3063,
            "Ġallows": 3064,
            "Ġteacher": 3065,
            "Ġmention": 3066,
            "Ġancient": 3067,
            "Ġknowing": 3068,
            "ware": 3069,
            "Ġpsych": 3070,
            "Ġcontinue": 3071,
            "Ġpieces": 3072,
            "Ġmount": 3073,
            "Ġgather": 3074,
            "Ġonto": 3075,
            "Ġreflect": 3076,
            "icate": 3077,
            "bol": 3078,
            "oices": 3079,
            "Ġcaused": 3080,
            "Ġschools": 3081,
            "ping": 3082,
            "Ġbodies": 3083,
            "EN": 3084,
            "co": 3085,
            "Ġdanger": 3086,
            "Ġforget": 3087,
            "ĠEach": 3088,
            "Ġpeace": 3089,
            "iol": 3090,
            "Ġleaves": 3091,
            "ales": 3092,
            "Ġimag": 3093,
            "Ġprev": 3094,
            "After": 3095,
            "Ġver": 3096,
            "Ġfamous": 3097,
            "illi": 3098,
            "ground": 3099,
            "Please": 3100,
            "hich": 3101,
            "Ġeasily": 3102,
            "Ġcommunication": 3103,
            "Ġclot": 3104,
            "ptoms": 3105,
            "ĠHealth": 3106,
            "Ġnecessary": 3107,
            "||": 3108,
            "lier": 3109,
            "Ġissue": 3110,
            "Ġsociety": 3111,
            "ctions": 3112,
            "Ġord": 3113,
            "Ġemerg": 3114,
            "Ġpatients": 3115,
            "Ġrights": 3116,
            "Ġcam": 3117,
            "Ġhop": 3118,
            "Ġla": 3119,
            "Ġmov": 3120,
            "Ġ#": 3121,
            "Ġmis": 3122,
            "ĠCar": 3123,
            "Ġproduction": 3124,
            "ĠCol": 3125,
            "Ġinvestig": 3126,
            "Ġreach": 3127,
            "Ġbirth": 3128,
            "Ġpoll": 3129,
            "Ġneg": 3130,
            "atever": 3131,
            "ĠGerm": 3132,
            "idered": 3133,
            "Ġproduce": 3134,
            "Ġveget": 3135,
            "Ġpicture": 3136,
            "ĠYOU": 3137,
            "ommend": 3138,
            "oub": 3139,
            "Ġfeed": 3140,
            "Ġstudent": 3141,
            "ibr": 3142,
            "Ġmultip": 3143,
            "Ġgiving": 3144,
            "Ġproducts": 3145,
            "Some": 3146,
            "cience": 3147,
            "Ġwritten": 3148,
            "ducing": 3149,
            "Ġanimal": 3150,
            "Ġeating": 3151,
            "atives": 3152,
            "ival": 3153,
            "Ġlower": 3154,
            "Ġbehavior": 3155,
            "sequ": 3156,
            "earch": 3157,
            "Ġdifference": 3158,
            "eper": 3159,
            "Ġwat": 3160,
            "Ġreve": 3161,
            "ooking": 3162,
            "lt": 3163,
            "Ġsky": 3164,
            "enge": 3165,
            "Ġshape": 3166,
            "Ġtaught": 3167,
            "Ġdeb": 3168,
            "Ġenvironmental": 3169,
            "Ġmist": 3170,
            "Ġability": 3171,
            "just": 3172,
            "ference": 3173,
            "Ġactivity": 3174,
            "Ġeffects": 3175,
            "Ġcorrect": 3176,
            "Ġcos": 3177,
            "Ġdeveloped": 3178,
            "Ġleading": 3179,
            "Ġguys": 3180,
            "Ġreact": 3181,
            "Ġstat": 3182,
            "Ġregion": 3183,
            "inks": 3184,
            "Ġhell": 3185,
            "airs": 3186,
            "au": 3187,
            "Ġsus": 3188,
            "lement": 3189,
            "Ġcompan": 3190,
            "Ġrob": 3191,
            "ĠDon": 3192,
            "Ġmiles": 3193,
            "Ġsteps": 3194,
            "Ġcrucial": 3195,
            "Ġcross": 3196,
            "Ġmethods": 3197,
            "mon": 3198,
            "Ġpull": 3199,
            "cean": 3200,
            "Ġpictures": 3201,
            "Ġconsidered": 3202,
            "Ġstructure": 3203,
            "Ġcreatures": 3204,
            "de": 3205,
            "itation": 3206,
            "olutely": 3207,
            "Ġshall": 3208,
            "Ġsold": 3209,
            "Ġspent": 3210,
            "Ġheat": 3211,
            "ustain": 3212,
            "Ġmoving": 3213,
            "Ġwaiting": 3214,
            "Ġterms": 3215,
            "nam": 3216,
            "Ġsecret": 3217,
            "ysis": 3218,
            ".'": 3219,
            "Ġloss": 3220,
            "ĠJapan": 3221,
            "ĠStud": 3222,
            "Ġguid": 3223,
            "used": 3224,
            "Ġmeasure": 3225,
            "Ġlots": 3226,
            "Ġi": 3227,
            "Ġhosp": 3228,
            "-\\": 3229,
            "ĠMiss": 3230,
            "Ġwalk": 3231,
            "itted": 3232,
            "Ġing": 3233,
            "ĠHar": 3234,
            "unt": 3235,
            "Ġbelong": 3236,
            "Ġassist": 3237,
            "ĠToday": 3238,
            "ression": 3239,
            "Ġcook": 3240,
            "ĠX": 3241,
            "Ġdesigned": 3242,
            "asons": 3243,
            "Ġinstance": 3244,
            "Ġintro": 3245,
            "ners": 3246,
            "These": 3247,
            "enced": 3248,
            "Ġrange": 3249,
            "Ġgarden": 3250,
            "aling": 3251,
            "Ġdad": 3252,
            "Ġimmedi": 3253,
            "Ġcultural": 3254,
            "Ġrecommend": 3255,
            "ray": 3256,
            "enn": 3257,
            "lled": 3258,
            "Ġdel": 3259,
            "Ġspirit": 3260,
            "Ġweight": 3261,
            "Ġherself": 3262,
            "Maybe": 3263,
            "Ġaud": 3264,
            "oph": 3265,
            "Ġopportunities": 3266,
            "Ne": 3267,
            "Ġnational": 3268,
            "Ġdeg": 3269,
            "ĠFrench": 3270,
            "Ġplayed": 3271,
            "Ġmap": 3272,
            "ĠHere": 3273,
            "Ġplanning": 3274,
            "Ġdemon": 3275,
            "Ġreduce": 3276,
            "Ġport": 3277,
            "ĠUnderstand": 3278,
            "Ġanaly": 3279,
            "ED": 3280,
            "Ġmicro": 3281,
            "Ġhit": 3282,
            "Ġfrequ": 3283,
            "itary": 3284,
            "Ġsett": 3285,
            "Ġfresh": 3286,
            "ĠFrom": 3287,
            "ĠOur": 3288,
            "Ġparty": 3289,
            "Ġfat": 3290,
            "Ġteach": 3291,
            "reme": 3292,
            "Ġrout": 3293,
            "Ġefforts": 3294,
            "roduction": 3295,
            "Ġvideo": 3296,
            "ffic": 3297,
            "Ġglobal": 3298,
            "Ġrock": 3299,
            "Ġstrange": 3300,
            "Ġ0": 3301,
            "reg": 3302,
            "Ġpic": 3303,
            "Ġmodel": 3304,
            "Ġweather": 3305,
            "Ġkid": 3306,
            "Ġuses": 3307,
            "ĠEd": 3308,
            "Ġbalance": 3309,
            "First": 3310,
            "Un": 3311,
            "Ġpolicy": 3312,
            "het": 3313,
            "Ġchanged": 3314,
            "Ġbirds": 3315,
            "Ġsweet": 3316,
            "Ġdin": 3317,
            "Ġafterno": 3318,
            "ĠTHE": 3319,
            "aches": 3320,
            "ĠEvery": 3321,
            "iring": 3322,
            "set": 3323,
            "Ġlesson": 3324,
            "Ġdro": 3325,
            "icles": 3326,
            "Ġheld": 3327,
            "Ġrate": 3328,
            "Ġsource": 3329,
            "Ġkilled": 3330,
            "Ġseven": 3331,
            "Me": 3332,
            "Ġstraight": 3333,
            "order": 3334,
            "Ġposition": 3335,
            "iliar": 3336,
            "Ġhurt": 3337,
            "Ġcausing": 3338,
            "inct": 3339,
            "Ġwife": 3340,
            "Ġforms": 3341,
            "Ġchemical": 3342,
            "ography": 3343,
            "ensive": 3344,
            "Ġkeeping": 3345,
            "pes": 3346,
            "Ġstronger": 3347,
            "epend": 3348,
            "anna": 3349,
            "Ġdecision": 3350,
            "Ġglass": 3351,
            "Hello": 3352,
            "Ġapproach": 3353,
            "Ġrev": 3354,
            "Ġmagical": 3355,
            "oe": 3356,
            "Ġrelated": 3357,
            "Ġsubst": 3358,
            "Ġmagn": 3359,
            "Ġoh": 3360,
            "uzz": 3361,
            "Ġallowed": 3362,
            "Ġast": 3363,
            "Ġfinally": 3364,
            "iosity": 3365,
            "ĠIm": 3366,
            "IT": 3367,
            "ously": 3368,
            "Ġagreed": 3369,
            "Ġsources": 3370,
            "nds": 3371,
            "Ġgrad": 3372,
            "ĠCanad": 3373,
            "iff": 3374,
            "Ġconsist": 3375,
            "**\\": 3376,
            "Ġcases": 3377,
            "Ġafternoon": 3378,
            "See": 3379,
            "ĠCount": 3380,
            "Ġservice": 3381,
            "gar": 3382,
            "Ġvoice": 3383,
            "cles": 3384,
            "Ġahead": 3385,
            "Ġhous": 3386,
            "Ġperspect": 3387,
            "Ġvillage": 3388,
            "ha": 3389,
            "oman": 3390,
            "ĠSu": 3391,
            "Ġsave": 3392,
            "Ġunf": 3393,
            "Ġclaim": 3394,
            "Ġmedia": 3395,
            "Ġbra": 3396,
            "idge": 3397,
            "duct": 3398,
            "imately": 3399,
            "amie": 3400,
            "Ġimages": 3401,
            "Ġservices": 3402,
            "inc": 3403,
            "ĠMany": 3404,
            "Ġguide": 3405,
            "Ġcompared": 3406,
            "ĠKing": 3407,
            "eep": 3408,
            "Ġrich": 3409,
            "ancy": 3410,
            "arily": 3411,
            "ĠPer": 3412,
            "Ġchallenge": 3413,
            "uing": 3414,
            "Ġinnov": 3415,
            "pper": 3416,
            "ĠSim": 3417,
            "ils": 3418,
            "fact": 3419,
            "lict": 3420,
            "Ġinj": 3421,
            "oved": 3422,
            "Ġdefin": 3423,
            "Ġserious": 3424,
            "ana": 3425,
            "Ġstates": 3426,
            "ĠWas": 3427,
            "eb": 3428,
            "itor": 3429,
            "aged": 3430,
            "Ġsam": 3431,
            "Ġpolitical": 3432,
            "aur": 3433,
            "ustr": 3434,
            "Ġrecent": 3435,
            "ky": 3436,
            "Ġpick": 3437,
            "Ġdetect": 3438,
            "Ġfem": 3439,
            "ĠIntern": 3440,
            "ification": 3441,
            "____": 3442,
            "Ġassociated": 3443,
            "iver": 3444,
            "Ġtrouble": 3445,
            "Ġearlier": 3446,
            "Ġaccur": 3447,
            "Ġelectric": 3448,
            "Ġobser": 3449,
            "Ġbust": 3450,
            "ĠPres": 3451,
            "iving": 3452,
            "However": 3453,
            "Ġincreased": 3454,
            "Ġelements": 3455,
            "Ġsymbol": 3456,
            "Ġminute": 3457,
            "Ġsymptoms": 3458,
            "entle": 3459,
            "hib": 3460,
            "Ġcollabor": 3461,
            "Ġoriginal": 3462,
            "Ġdie": 3463,
            "Ġbelief": 3464,
            "Ġnearby": 3465,
            "Ġfit": 3466,
            "ript": 3467,
            "Ġdispl": 3468,
            "tempt": 3469,
            "ĠTom": 3470,
            "Ġforce": 3471,
            "Ġkept": 3472,
            "ounter": 3473,
            "RE": 3474,
            "Ġfif": 3475,
            "men": 3476,
            "ops": 3477,
            "Ġstarting": 3478,
            "Ġbasic": 3479,
            "Ġburn": 3480,
            "Ġsmiled": 3481,
            "ĠSchool": 3482,
            "ĠAust": 3483,
            "ĠCons": 3484,
            "Ġvalues": 3485,
            "Ġcand": 3486,
            "Ġpolice": 3487,
            "-in": 3488,
            "idden": 3489,
            "Ġsearch": 3490,
            "ume": 3491,
            "==": 3492,
            "Ġcard": 3493,
            "mb": 3494,
            "Ġ?\\": 3495,
            "ĠLike": 3496,
            "Ġrequired": 3497,
            "Ġaim": 3498,
            "orpor": 3499,
            "aging": 3500,
            "Ġconflict": 3501,
            "Ġmanagement": 3502,
            "Ġresponsible": 3503,
            "ID": 3504,
            "Ġlif": 3505,
            "aching": 3506,
            "Ġtransport": 3507,
            "Ġdrink": 3508,
            "ests": 3509,
            "Ġwonderful": 3510,
            "Ġbenefits": 3511,
            "Ġnormal": 3512,
            "ball": 3513,
            "Ġple": 3514,
            "Ġeth": 3515,
            "illing": 3516,
            "Ġsuggested": 3517,
            "IC": 3518,
            "irm": 3519,
            "Ġjud": 3520,
            "ĠPeople": 3521,
            "Ġdry": 3522,
            "ctors": 3523,
            "Ġflu": 3524,
            "estern": 3525,
            "Ġtherap": 3526,
            "Ġpan": 3527,
            "icing": 3528,
            "verage": 3529,
            "Ġviol": 3530,
            "Ġworth": 3531,
            "Ġleaders": 3532,
            "Ġflowers": 3533,
            "hered": 3534,
            "Ġdecisions": 3535,
            "Ġindeed": 3536,
            "Ġwebs": 3537,
            "oul": 3538,
            "Ġmoved": 3539,
            "Ġmental": 3540,
            "ĠSec": 3541,
            "Ġaspects": 3542,
            "acters": 3543,
            "Ġincredible": 3544,
            "Ġwis": 3545,
            "Ġitems": 3546,
            "Ġheavy": 3547,
            "Ġtwenty": 3548,
            "ĠQu": 3549,
            "Ġtraining": 3550,
            "pid": 3551,
            "Ġbill": 3552,
            "Ġrespond": 3553,
            "Ġlog": 3554,
            "ĠJew": 3555,
            "Ġdifferences": 3556,
            "Ġprote": 3557,
            "Ġparticularly": 3558,
            "Ġtruth": 3559,
            "Ġwhose": 3560,
            "Ġprovided": 3561,
            "urg": 3562,
            "Ġdeeper": 3563,
            "Of": 3564,
            "Ġbud": 3565,
            "Ġcontact": 3566,
            "Ġpoints": 3567,
            "iation": 3568,
            "ĠHist": 3569,
            "--\\": 3570,
            "Ġborn": 3571,
            "Ġattend": 3572,
            "ĠPol": 3573,
            "Ġobjects": 3574,
            "Ġweren": 3575,
            "Ġcry": 3576,
            "ĠGen": 3577,
            "Ġconnections": 3578,
            "Ġcondition": 3579,
            "Ġble": 3580,
            "izations": 3581,
            "vere": 3582,
            "ĠAre": 3583,
            "Ġspot": 3584,
            "Ġdescrib": 3585,
            "Ġded": 3586,
            "Ġdied": 3587,
            "ublic": 3588,
            "Ġprovides": 3589,
            "Ġton": 3590,
            "stood": 3591,
            "ĠSm": 3592,
            "ram": 3593,
            "Ġlat": 3594,
            "that": 3595,
            "Ġsurprise": 3596,
            "uries": 3597,
            "Ġexcept": 3598,
            "ĠWho": 3599,
            "Ġappreciate": 3600,
            "Ġpublished": 3601,
            "Ġhistorical": 3602,
            "uted": 3603,
            "Ġbelieved": 3604,
            "Ġtar": 3605,
            "reet": 3606,
            "ceed": 3607,
            "athy": 3608,
            "Ġopportunity": 3609,
            "Or": 3610,
            "ibly": 3611,
            "Ġplanet": 3612,
            "wl": 3613,
            "Ġhomes": 3614,
            "Ġtransform": 3615,
            "Ġmultiple": 3616,
            "water": 3617,
            "Ġrecently": 3618,
            "Ġmonth": 3619,
            "onse": 3620,
            "ĠAct": 3621,
            "Ġcompon": 3622,
            "oration": 3623,
            "Ġattempt": 3624,
            "Ġmovement": 3625,
            "Ġpet": 3626,
            "ores": 3627,
            "osing": 3628,
            "Ġfaced": 3629,
            "Ġdamage": 3630,
            "Ġdemonstr": 3631,
            "ĠOf": 3632,
            "Ġoverall": 3633,
            "umbled": 3634,
            "fess": 3635,
            "teen": 3636,
            "Ġsummer": 3637,
            "aks": 3638,
            "you": 3639,
            "adem": 3640,
            "Ġarrived": 3641,
            "Ġtouch": 3642,
            "Ġbag": 3643,
            "Ġbott": 3644,
            "cell": 3645,
            "Ġmur": 3646,
            "ĠRuss": 3647,
            "Ġavoid": 3648,
            "Ġeconomic": 3649,
            "chan": 3650,
            "Ġwaste": 3651,
            "Our": 3652,
            "Ġfix": 3653,
            "Ġcuriosity": 3654,
            "Ġeasier": 3655,
            "anw": 3656,
            "Ġseason": 3657,
            "istics": 3658,
            "ĠJack": 3659,
            "ĠAdd": 3660,
            "itude": 3661,
            "Ġlines": 3662,
            "Ġsmaller": 3663,
            "osis": 3664,
            "ĠFirst": 3665,
            "Ġcauses": 3666,
            "Ġsustain": 3667,
            "Ġdom": 3668,
            "ĠPre": 3669,
            "ccording": 3670,
            "Section": 3671,
            "ror": 3672,
            "Ġcit": 3673,
            "enny": 3674,
            "ension": 3675,
            "LE": 3676,
            "Ġ--": 3677,
            "ĠRed": 3678,
            "ords": 3679,
            "Ġsick": 3680,
            "Ġhappening": 3681,
            "Ġarticle": 3682,
            "ino": 3683,
            "vey": 3684,
            "liver": 3685,
            "Ġfoods": 3686,
            "Ġattack": 3687,
            "Ġrelationships": 3688,
            "Ġtemperature": 3689,
            "Ġimage": 3690,
            "Ġfear": 3691,
            "Ġwel": 3692,
            "Ġcouple": 3693,
            "pri": 3694,
            "Ġachieve": 3695,
            "Ġtotal": 3696,
            "ĠOver": 3697,
            "Ġcultures": 3698,
            "Ġstudying": 3699,
            "Ġprograms": 3700,
            "Ġalthough": 3701,
            "Ġactions": 3702,
            "Ġpage": 3703,
            "lands": 3704,
            "Ġcharacters": 3705,
            "antly": 3706,
            "Ġlaug": 3707,
            "irty": 3708,
            "acking": 3709,
            "Ġrefer": 3710,
            "Ġcompletely": 3711,
            "Ġconc": 3712,
            "Ġfollowed": 3713,
            "Ġcloser": 3714,
            "ĠInstead": 3715,
            "Ġstar": 3716,
            "NA": 3717,
            "Ġstars": 3718,
            "ĠDep": 3719,
            "Ġpractices": 3720,
            "Ġdirectly": 3721,
            "rim": 3722,
            "anging": 3723,
            "Ġolder": 3724,
            "Ġteachers": 3725,
            "Ġmessage": 3726,
            "Ġreceived": 3727,
            "Ġgreater": 3728,
            "kes": 3729,
            "ken": 3730,
            "ĠGood": 3731,
            "Ġoffice": 3732,
            "lies": 3733,
            "ĠColl": 3734,
            "ĠRemember": 3735,
            "Ġincludes": 3736,
            "ĠThrough": 3737,
            "Ġeager": 3738,
            "ĠDuring": 3739,
            "ĠEl": 3740,
            "Ġjoin": 3741,
            "Ġut": 3742,
            "Ġpassion": 3743,
            "Ġprepared": 3744,
            "Any": 3745,
            "Ġdog": 3746,
            "Ġgrew": 3747,
            "pre": 3748,
            "ĠCur": 3749,
            "Ġvict": 3750,
            "Ġseeing": 3751,
            "Ġsmooth": 3752,
            "Ġec": 3753,
            "From": 3754,
            "een": 3755,
            "ocks": 3756,
            "Ġlink": 3757,
            "Ġluck": 3758,
            "key": 3759,
            "Ġconduct": 3760,
            "Ġconnection": 3761,
            "Ġprojects": 3762,
            "Ġbeginning": 3763,
            "Ġfellow": 3764,
            "hold": 3765,
            "rs": 3766,
            "Ġgoal": 3767,
            "ĠThanks": 3768,
            "Ġconversation": 3769,
            "ĠBritish": 3770,
            "Ġspeed": 3771,
            "dd": 3772,
            "inist": 3773,
            "Ġdiverse": 3774,
            "ĠAlthough": 3775,
            "omen": 3776,
            "Ġfinan": 3777,
            "ĠCo": 3778,
            "Ġsand": 3779,
            "Ġfol": 3780,
            "ĠTed": 3781,
            "Title": 3782,
            "Ġwish": 3783,
            "Ġsettle": 3784,
            "Ġnav": 3785,
            "Ġintell": 3786,
            "Ġcalcul": 3787,
            "Ġtruly": 3788,
            "Ġtall": 3789,
            "Ġbecomes": 3790,
            "Ġindustry": 3791,
            "ĠUnderstanding": 3792,
            "Ġreview": 3793,
            "Ġresist": 3794,
            "ĠState": 3795,
            "Ġdeveloping": 3796,
            "Ġemotions": 3797,
            "Ġaf": 3798,
            "Ġsend": 3799,
            "Ġfeatures": 3800,
            "Ġlocation": 3801,
            "Ġwatching": 3802,
            "Ġgotta": 3803,
            "Ġingred": 3804,
            "Ġegg": 3805,
            "ĠWh": 3806,
            "ĠResearch": 3807,
            "Ġcatch": 3808,
            "amin": 3809,
            "Ġletter": 3810,
            "vest": 3811,
            "Ġmouth": 3812,
            "ĠPar": 3813,
            "hens": 3814,
            "Ġcarbon": 3815,
            "Ġtrip": 3816,
            "Ġwhenever": 3817,
            "Ġeffort": 3818,
            "Ġequal": 3819,
            "Ġbustling": 3820,
            "idents": 3821,
            "Ġtarget": 3822,
            "Ġmiddle": 3823,
            "Ġgives": 3824,
            "ĠSee": 3825,
            "Ġanx": 3826,
            "Ġlistening": 3827,
            "Ġmachine": 3828,
            "Ġpurpose": 3829,
            "Ġcontent": 3830,
            "wor": 3831,
            "Ġir": 3832,
            "ancing": 3833,
            "Ġlaws": 3834,
            "ups": 3835,
            "esus": 3836,
            "aly": 3837,
            "Ġallowing": 3838,
            "Ġseries": 3839,
            "Ġinvent": 3840,
            "Ġboard": 3841,
            "Ġnation": 3842,
            "ĠSw": 3843,
            "Ġlibr": 3844,
            "Ġdiet": 3845,
            "ĠAfrica": 3846,
            "ares": 3847,
            "Ġjoy": 3848,
            "ĠMaybe": 3849,
            "Ġnegative": 3850,
            "ĠJamie": 3851,
            "ronic": 3852,
            "Ġtheory": 3853,
            "Ġdetails": 3854,
            "Ġtoys": 3855,
            "Ġnotice": 3856,
            "Ġsituations": 3857,
            "Ġsuddenly": 3858,
            "Ġselect": 3859,
            "iforn": 3860,
            "Ġgold": 3861,
            "Ġfriendly": 3862,
            "ipment": 3863,
            "Ġincreasing": 3864,
            "Ġreasons": 3865,
            "ucking": 3866,
            "Ġetc": 3867,
            "ties": 3868,
            "Ġsister": 3869,
            "Ġhost": 3870,
            "Ġthird": 3871,
            "Ġunderstood": 3872,
            "Ġthanks": 3873,
            "Ġextreme": 3874,
            "mosp": 3875,
            "ye": 3876,
            "Ġhabit": 3877,
            "iles": 3878,
            "Ġtrack": 3879,
            "Ġanymore": 3880,
            "Ġscen": 3881,
            "Ġpatient": 3882,
            "Ġeffective": 3883,
            "Ġboys": 3884,
            "Ġgentle": 3885,
            "Ġstumbled": 3886,
            "ourse": 3887,
            "Ġproduced": 3888,
            "ĠCont": 3889,
            "Ġadults": 3890,
            "ses": 3891,
            "oses": 3892,
            "Next": 3893,
            "ĠTO": 3894,
            "Ġvac": 3895,
            "Ġaltern": 3896,
            "Ġdistrib": 3897,
            "Ġappropri": 3898,
            "Ġstorm": 3899,
            "Ġtend": 3900,
            "ĠTogether": 3901,
            "Ġcontro": 3902,
            "exic": 3903,
            "Ġsmart": 3904,
            "Ġcars": 3905,
            "Ġexcit": 3906,
            "Ġsnow": 3907,
            "che": 3908,
            "Ġweak": 3909,
            "Ġspend": 3910,
            "Ġbird": 3911,
            "Ġmentioned": 3912,
            "band": 3913,
            "Ġbound": 3914,
            "Ġconnected": 3915,
            "pro": 3916,
            "Ġbacter": 3917,
            "Ġperformance": 3918,
            "Ġneighbor": 3919,
            "Ġdelicious": 3920,
            "Ġhospital": 3921,
            "Ġtour": 3922,
            "itute": 3923,
            "ĠMon": 3924,
            "Ġchap": 3925,
            "ovel": 3926,
            "ĠChina": 3927,
            "Ġidentify": 3928,
            "Ġexcl": 3929,
            "Ġassess": 3930,
            "Ġthousands": 3931,
            "Ġwanna": 3932,
            "icient": 3933,
            "Ġran": 3934,
            "ĠRep": 3935,
            "ifornia": 3936,
            "wise": 3937,
            "omp": 3938,
            "Ġprint": 3939,
            "att": 3940,
            "Ġtelling": 3941,
            "Ġeventually": 3942,
            "ov": 3943,
            "izes": 3944,
            "ĠAfrican": 3945,
            "Ġmine": 3946,
            "Ġmanage": 3947,
            "ĠEngland": 3948,
            "Ġ|": 3949,
            "Ġgently": 3950,
            "Ġnine": 3951,
            "Ġcritical": 3952,
            "ĠGeorge": 3953,
            "Ġwhatever": 3954,
            "Ġwrote": 3955,
            "Ġdiagn": 3956,
            "iers": 3957,
            "tes": 3958,
            "house": 3959,
            "Ġdress": 3960,
            "Ġcommit": 3961,
            "Ġnearly": 3962,
            "iling": 3963,
            "Ġlarger": 3964,
            "Ġdevices": 3965,
            "Ġstrength": 3966,
            "mber": 3967,
            "lear": 3968,
            "ĠCity": 3969,
            "unk": 3970,
            "Ġproud": 3971,
            "Ġevening": 3972,
            "Ġexercise": 3973,
            "Ġcitiz": 3974,
            "ka": 3975,
            "Ġmaster": 3976,
            "Ġprec": 3977,
            "Ġslight": 3978,
            "Ġtomorrow": 3979,
            "Ġarr": 3980,
            "Ġthank": 3981,
            "Ġsolutions": 3982,
            "Dr": 3983,
            "hus": 3984,
            "Ġnodd": 3985,
            "Ġbroad": 3986,
            "cy": 3987,
            "rees": 3988,
            "Ġincluded": 3989,
            "Ġchanging": 3990,
            "Ġwinter": 3991,
            "zing": 3992,
            "Ġcivil": 3993,
            "Ġindepend": 3994,
            "Ġresponse": 3995,
            "Ġmission": 3996,
            "Ġoffe": 3997,
            "Ġstage": 3998,
            "ĠSte": 3999,
            "ĠRob": 4000,
            "Ġnames": 4001,
            "Ġwalking": 4002,
            "Ġdocument": 4003,
            "ffee": 4004,
            "Ġfinal": 4005,
            "Ġbeauty": 4006,
            "Ġexcitement": 4007,
            "ech": 4008,
            "Ġhidden": 4009,
            "Ġquiet": 4010,
            "Ġanalysis": 4011,
            "cks": 4012,
            "rast": 4013,
            "Ġcaught": 4014,
            "Ġpuzz": 4015,
            "ĠII": 4016,
            "Ġpow": 4017,
            "Ġmyster": 4018,
            "Like": 4019,
            "Ġtax": 4020,
            "itect": 4021,
            "Ġdrive": 4022,
            "Ġpromot": 4023,
            "Uh": 4024,
            "Ġtoy": 4025,
            "Ġminim": 4026,
            "aled": 4027,
            "Ġsell": 4028,
            "Ġrare": 4029,
            "ham": 4030,
            "icks": 4031,
            "Ġbeg": 4032,
            "ĠSally": 4033,
            "Ġsetting": 4034,
            "Ġcompanies": 4035,
            "Ġlose": 4036,
            "asure": 4037,
            "Ġuh": 4038,
            "Ġtrade": 4039,
            "ologies": 4040,
            "Ġcolorful": 4041,
            "-y": 4042,
            "Ġunit": 4043,
            "Ġmagic": 4044,
            "athered": 4045,
            "Ġpark": 4046,
            "Ġgun": 4047,
            "Ġinfect": 4048,
            "Ġincorpor": 4049,
            "back": 4050,
            "Ġscreen": 4051,
            "Ġdetermine": 4052,
            "ius": 4053,
            "Ġaverage": 4054,
            "Ġhus": 4055,
            "ĠMexic": 4056,
            "Ġsecurity": 4057,
            "Ġcolon": 4058,
            "Ġfinancial": 4059,
            "ĠApp": 4060,
            "Ġstandard": 4061,
            "ev": 4062,
            "abet": 4063,
            "Ġadapt": 4064,
            "Cl": 4065,
            "ĠMore": 4066,
            "Ġsuccessful": 4067,
            "-st": 4068,
            "bb": 4069,
            "ias": 4070,
            "Ġain": 4071,
            "ellow": 4072,
            "ww": 4073,
            "ications": 4074,
            "ĠScience": 4075,
            "Ġchoices": 4076,
            "AL": 4077,
            "Ġbecoming": 4078,
            "appoint": 4079,
            "rial": 4080,
            "aint": 4081,
            "Ġaddition": 4082,
            "Ġofficial": 4083,
            "OT": 4084,
            "Ġcred": 4085,
            "Ġbase": 4086,
            "Ġembr": 4087,
            "Ġpaint": 4088,
            "Ġlanguages": 4089,
            "but": 4090,
            "Ġreached": 4091,
            "iday": 4092,
            "ĠThom": 4093,
            "Ġmemory": 4094,
            "Ġsomebody": 4095,
            "Ġesc": 4096,
            "Ġveh": 4097,
            "Ġstrategies": 4098,
            "oly": 4099,
            "Ġgrown": 4100,
            "Ġsupposed": 4101,
            "ĠIndia": 4102,
            "Ġconsequ": 4103,
            "Ġintegr": 4104,
            "ĠSammy": 4105,
            "Ġprofessional": 4106,
            "ĠChe": 4107,
            "Ġcities": 4108,
            "ocol": 4109,
            "Ġsites": 4110,
            "ortunately": 4111,
            "Ġenthus": 4112,
            "Thanks": 4113,
            "Ġcenter": 4114,
            "ĠArt": 4115,
            "Ġbuildings": 4116,
            "ĠIndian": 4117,
            "ĠAg": 4118,
            "well": 4119,
            "ĠWest": 4120,
            "Ġjump": 4121,
            "Ġexamples": 4122,
            "reedom": 4123,
            "ĠDav": 4124,
            "known": 4125,
            "Ġnodded": 4126,
            "aul": 4127,
            "Ġfing": 4128,
            "ĠGl": 4129,
            "ĠThink": 4130,
            "Ġinternational": 4131,
            "Ġhuge": 4132,
            "ixt": 4133,
            "ifying": 4134,
            "ĠCalifornia": 4135,
            "Ġenh": 4136,
            "Ġagree": 4137,
            "iber": 4138,
            "ĠLittle": 4139,
            "ocr": 4140,
            "new": 4141,
            "Ġdecide": 4142,
            "ĠExactly": 4143,
            "Ġdigital": 4144,
            "rupt": 4145,
            "Ġproviding": 4146,
            "Ġvirus": 4147,
            "itution": 4148,
            "-based": 4149,
            ":**": 4150,
            "Ġvast": 4151,
            "Ġaccident": 4152,
            "Ġclub": 4153,
            "Ġadvice": 4154,
            "Ġensuring": 4155,
            "Ġinfluence": 4156,
            "Ġocean": 4157,
            "Ġplans": 4158,
            "Ġdiscovery": 4159,
            "Ġcoast": 4160,
            "Ġinvolves": 4161,
            "Ġoptions": 4162,
            "mas": 4163,
            "sect": 4164,
            "Ġactive": 4165,
            "Ġattract": 4166,
            "ucy": 4167,
            "Ġshowing": 4168,
            "Ġequipment": 4169,
            "ufffd": 4170,
            "Ġdance": 4171,
            "raid": 4172,
            "ĠMin": 4173,
            "ĠSpe": 4174,
            "Ġsection": 4175,
            "Ġbull": 4176,
            "osy": 4177,
            "Ġfindings": 4178,
            "Ġopin": 4179,
            "ĠAmericans": 4180,
            "Ġtraditions": 4181,
            "Ġdescri": 4182,
            "raft": 4183,
            "Ġexch": 4184,
            "Ġatmosp": 4185,
            "Ġdisp": 4186,
            "Ġfaster": 4187,
            "Ġmilitary": 4188,
            "Pro": 4189,
            "While": 4190,
            "Ġmarried": 4191,
            "Ġvisual": 4192,
            "ĠAustral": 4193,
            "fessor": 4194,
            "AC": 4195,
            "ET": 4196,
            "Ġimplement": 4197,
            "ondon": 4198,
            "Ġnumer": 4199,
            "Ġdinner": 4200,
            "life": 4201,
            "eness": 4202,
            "que": 4203,
            "Ġgoals": 4204,
            "Ġclearly": 4205,
            "-to": 4206,
            "Ġdaughter": 4207,
            "ulate": 4208,
            "Ġeffici": 4209,
            "Ġsolve": 4210,
            "Ġdate": 4211,
            "Ġsigns": 4212,
            "can": 4213,
            "Ġmid": 4214,
            "igen": 4215,
            "Ġstanding": 4216,
            "Ġconcepts": 4217,
            "Ġintroduced": 4218,
            "Ġlandsc": 4219,
            "ufact": 4220,
            "erson": 4221,
            "Ġcrit": 4222,
            "Ġsolar": 4223,
            "Ġvariety": 4224,
            "Ġconcent": 4225,
            "OM": 4226,
            "Ġfant": 4227,
            "Ġmatters": 4228,
            "Ġimmediately": 4229,
            "Ġund": 4230,
            "Ġprefer": 4231,
            "Ġtonight": 4232,
            "Ġnavig": 4233,
            "cular": 4234,
            "Ġpen": 4235,
            "Ġplays": 4236,
            "bsolutely": 4237,
            "Ġwaves": 4238,
            "alu": 4239,
            "Ġserve": 4240,
            "sp": 4241,
            "osition": 4242,
            "Ġbusinesses": 4243,
            "Ġwindow": 4244,
            "Ġvibr": 4245,
            "Ġlocated": 4246,
            "Ġcontext": 4247,
            "Ġinstrum": 4248,
            "Ġadding": 4249,
            "ki": 4250,
            "Ġlack": 4251,
            "Ġleng": 4252,
            "Ġpredict": 4253,
            "board": 4254,
            "Sorry": 4255,
            "ĠCap": 4256,
            "overn": 4257,
            "Ġtopics": 4258,
            "Ġchallenging": 4259,
            "tery": 4260,
            "gn": 4261,
            "Ġfuel": 4262,
            "ĠPart": 4263,
            "era": 4264,
            "Ġdoub": 4265,
            "ĠMus": 4266,
            "Ġeverybody": 4267,
            "Ġtransl": 4268,
            "Ġfamiliar": 4269,
            "Ġregarding": 4270,
            "Ġgathered": 4271,
            "ĠMom": 4272,
            "Ġquant": 4273,
            "Ġfacts": 4274,
            "Ġhar": 4275,
            "Ġturns": 4276,
            "Ġcontribute": 4277,
            "Ġprivate": 4278,
            "ĠCounty": 4279,
            "Wait": 4280,
            "ĠTH": 4281,
            "Ġthousand": 4282,
            "ederal": 4283,
            "Ġmath": 4284,
            "elines": 4285,
            "Ġalive": 4286,
            "Ġarm": 4287,
            "Ġshouldn": 4288,
            "rief": 4289,
            "ĠCanada": 4290,
            "vert": 4291,
            "ĠSun": 4292,
            "Ġmechan": 4293,
            "Ġinterested": 4294,
            "obody": 4295,
            "Ġwalked": 4296,
            "Ġsugar": 4297,
            "Ġstructures": 4298,
            "Ġox": 4299,
            "amb": 4300,
            "ĠLear": 4301,
            "Ġclim": 4302,
            "Ġdemand": 4303,
            "Ġearn": 4304,
            "Ġmovie": 4305,
            "Ġcast": 4306,
            "Ġforces": 4307,
            "isten": 4308,
            "Ġdiscussion": 4309,
            "Ġjobs": 4310,
            "ingu": 4311,
            "Ġfra": 4312,
            "ica": 4313,
            "Ġexpected": 4314,
            "Ġcertainly": 4315,
            "Ġclosely": 4316,
            "Ġclothes": 4317,
            "ris": 4318,
            "uh": 4319,
            "entially": 4320,
            "Ġstick": 4321,
            "Ġshot": 4322,
            "Ġdecl": 4323,
            "Ġcareful": 4324,
            "Ġspecifically": 4325,
            "ĠCenter": 4326,
            "IV": 4327,
            "Ġsevere": 4328,
            "Ġchoice": 4329,
            "Ġhero": 4330,
            "Ġuser": 4331,
            "ĠDis": 4332,
            "Ġdiseases": 4333,
            "ĠComp": 4334,
            "Ġremained": 4335,
            "ST": 4336,
            "Ġtiss": 4337,
            "Ġhearing": 4338,
            "Ġsuit": 4339,
            "Ġwit": 4340,
            "ĠLondon": 4341,
            "ĠRec": 4342,
            "Ġcomputers": 4343,
            "Ġdevice": 4344,
            "ĠEuropean": 4345,
            "Ġafraid": 4346,
            "Ġmember": 4347,
            "ael": 4348,
            "vant": 4349,
            "Ġnic": 4350,
            "roy": 4351,
            "Ġcoffee": 4352,
            "Ġsupply": 4353,
            "Ġhusband": 4354,
            "ĠBar": 4355,
            "Ġtwist": 4356,
            "Ġorganizations": 4357,
            "Ġdisplay": 4358,
            "OW": 4359,
            "Int": 4360,
            "time": 4361,
            "ĠInt": 4362,
            "udd": 4363,
            "Ġfeels": 4364,
            "Ġprior": 4365,
            "Ġappropriate": 4366,
            "Ġsouth": 4367,
            "ession": 4368,
            "Ġmedicine": 4369,
            "now": 4370,
            "Ġletters": 4371,
            "Ġformed": 4372,
            "Ġfields": 4373,
            "Ġ.": 4374,
            "Ġpal": 4375,
            "Ġrepe": 4376,
            "igg": 4377,
            "olly": 4378,
            "Ġapart": 4379,
            "Ġconcerns": 4380,
            "Ġsoftware": 4381,
            "alk": 4382,
            "ĠMal": 4383,
            "Ġspeaking": 4384,
            "Ġworkers": 4385,
            "Ġdistance": 4386,
            "Ġcosts": 4387,
            "Ġingredients": 4388,
            "Ġcro": 4389,
            "orders": 4390,
            "Ġtaste": 4391,
            "Take": 4392,
            "_,": 4393,
            "care": 4394,
            "Ġfly": 4395,
            "ĠPark": 4396,
            "itely": 4397,
            "Ġhandle": 4398,
            "Ġwear": 4399,
            "Ġtea": 4400,
            "Ġdifferently": 4401,
            "Ġvegetables": 4402,
            "Ġstyle": 4403,
            "Ġfocused": 4404,
            "Ġreported": 4405,
            "Ġbond": 4406,
            "\\\"\\": 4407,
            "Ġseeds": 4408,
            "ĠGreen": 4409,
            "Ġ\\/": 4410,
            "Ġimpl": 4411,
            "versity": 4412,
            "Ġinterests": 4413,
            "ĠPresident": 4414,
            "Ġcharge": 4415,
            "Ġbenefit": 4416,
            "Ġdrug": 4417,
            "ND": 4418,
            "nded": 4419,
            "otic": 4420,
            "ulf": 4421,
            "Ġinstruct": 4422,
            "hips": 4423,
            "Ġfruit": 4424,
            "Ġshapes": 4425,
            "Ġdangerous": 4426,
            "ipp": 4427,
            "Ġshar": 4428,
            "Ġshown": 4429,
            "Ġadditional": 4430,
            "Ġprinciples": 4431,
            "Ġoffered": 4432,
            "Ġult": 4433,
            "ilos": 4434,
            "Ġidentity": 4435,
            "mission": 4436,
            "Ġnorth": 4437,
            "Ġdiscussing": 4438,
            "Ġcollege": 4439,
            "la": 4440,
            "Ġsitting": 4441,
            "Ġpaid": 4442,
            "iant": 4443,
            "Ġthus": 4444,
            "orthern": 4445,
            "Ġprice": 4446,
            "Ġrelative": 4447,
            "Ġfruits": 4448,
            "Ġseparate": 4449,
            "Ġnovel": 4450,
            "Ġobv": 4451,
            "isms": 4452,
            "Ġcraft": 4453,
            "Ġvirt": 4454,
            "Ġunc": 4455,
            "ricult": 4456,
            "**:": 4457,
            "Ġexperienced": 4458,
            "ĠDepartment": 4459,
            "ĠOnce": 4460,
            "Ġremains": 4461,
            "Ġartists": 4462,
            "Ġdrugs": 4463,
            "Finally": 4464,
            "Ġnote": 4465,
            "Ġcollection": 4466,
            "Ġproperty": 4467,
            "Ġreturned": 4468,
            "Ġexperiment": 4469,
            "Ġprotection": 4470,
            "ĠMer": 4471,
            "Ġplaced": 4472,
            "ĠCharl": 4473,
            "Ġgenerally": 4474,
            "Ġpracticing": 4475,
            "Even": 4476,
            "Ġbow": 4477,
            "ĠPat": 4478,
            "Ġmoon": 4479,
            "Ġarchitect": 4480,
            "uild": 4481,
            "ads": 4482,
            "Ġdoctors": 4483,
            "Ġsolution": 4484,
            "Ġestablished": 4485,
            "nes": 4486,
            "Ġcode": 4487,
            "Ġep": 4488,
            "ubb": 4489,
            "lor": 4490,
            "apers": 4491,
            "Ġmathem": 4492,
            "Ġstood": 4493,
            "ĠCouncil": 4494,
            "Ġrace": 4495,
            "ĠUsing": 4496,
            "Ġapproached": 4497,
            "Ġjournal": 4498,
            "Ġtele": 4499,
            "inate": 4500,
            "ĠMad": 4501,
            "rible": 4502,
            "encies": 4503,
            "Ġbigger": 4504,
            "Ġfilm": 4505,
            "ĠHistory": 4506,
            "Ġmut": 4507,
            "arian": 4508,
            "ooper": 4509,
            "Ġspoke": 4510,
            "Ġagricult": 4511,
            "Ġslowly": 4512,
            "-year": 4513,
            "iverse": 4514,
            "Ġmanufact": 4515,
            "Ġinsights": 4516,
            "wide": 4517,
            "Ġhelpful": 4518,
            "Ġminds": 4519,
            "ĠReg": 4520,
            "Ġreligious": 4521,
            "Ġnin": 4522,
            "Ġusers": 4523,
            "Ġplat": 4524,
            "Ġkinds": 4525,
            "Ġrequires": 4526,
            "Ġtests": 4527,
            "aimed": 4528,
            "Ġcomponents": 4529,
            "Ġfost": 4530,
            "Ġhun": 4531,
            "Ġrapid": 4532,
            "Ġtow": 4533,
            "Ġreci": 4534,
            "Ġdisappoint": 4535,
            "Ġreceive": 4536,
            "mit": 4537,
            "arked": 4538,
            "Ġtalked": 4539,
            "Ġaffected": 4540,
            "outhern": 4541,
            "alled": 4542,
            "appe": 4543,
            "Ġsignificantly": 4544,
            "Ġprimary": 4545,
            "ym": 4546,
            "Ġnotes": 4547,
            "ĠRiver": 4548,
            "Ġbehavi": 4549,
            "Ġgrass": 4550,
            "Ġactual": 4551,
            "Ġscared": 4552,
            "Ġcentral": 4553,
            "Ġsquare": 4554,
            "ees": 4555,
            "what": 4556,
            "Ġgenerations": 4557,
            "Ġestim": 4558,
            "Ġlimited": 4559,
            "hm": 4560,
            "Ġsides": 4561,
            "Ġpurch": 4562,
            "Ġholding": 4563,
            "Ġdetermined": 4564,
            "ĠMost": 4565,
            "Ġtrib": 4566,
            "Ġstopped": 4567,
            "Ġhorse": 4568,
            "Ġgod": 4569,
            "Ġrise": 4570,
            "Ġhouses": 4571,
            "Ġworried": 4572,
            "Ġeffectively": 4573,
            "Ġhyd": 4574,
            "Ġcitizens": 4575,
            "Ġthick": 4576,
            "izz": 4577,
            "Ġfunny": 4578,
            "Ġfinished": 4579,
            "Ġbreath": 4580,
            "Ġx": 4581,
            "Ġtill": 4582,
            "Ġmel": 4583,
            "ĠEduc": 4584,
            "Ġrealize": 4585,
            "------------------------": 4586,
            "nand": 4587,
            "ingly": 4588,
            "Ġbrings": 4589,
            "Ġmatch": 4590,
            "Ġmanaged": 4591,
            "Ġradio": 4592,
            "Ġrecords": 4593,
            "His": 4594,
            "Ġrelease": 4595,
            "Ġdefe": 4596,
            "Ġdoll": 4597,
            "Ġturning": 4598,
            "Ġcalm": 4599,
            "GH": 4600,
            "off": 4601,
            "Ġlargest": 4602,
            "Ġbacteria": 4603,
            "Two": 4604,
            "Ġrates": 4605,
            "ĠUnit": 4606,
            "osure": 4607,
            "Ġbeliefs": 4608,
            "lied": 4609,
            "ildren": 4610,
            "Ġuseful": 4611,
            "Ġexpand": 4612,
            "mond": 4613,
            "ula": 4614,
            "issions": 4615,
            "Ġexpert": 4616,
            "Ġtells": 4617,
            "Ġexplaining": 4618,
            "Ġfucking": 4619,
            "rab": 4620,
            "ĠDay": 4621,
            "Ġsomewhere": 4622,
            "Ġnetwork": 4623,
            "Ġbottom": 4624,
            "Ġbank": 4625,
            "Ġfile": 4626,
            "omed": 4627,
            "ĠAng": 4628,
            "Ġship": 4629,
            "ĠChristmas": 4630,
            "Ġring": 4631,
            "ĠGrand": 4632,
            "Ġanyway": 4633,
            "Ġevalu": 4634,
            "Ġstreet": 4635,
            "Ġwarn": 4636,
            "chol": 4637,
            "Ġadop": 4638,
            "ĠChar": 4639,
            "gery": 4640,
            "Ġjoined": 4641,
            "igr": 4642,
            "Ġju": 4643,
            "Ġunus": 4644,
            "Ġpolit": 4645,
            "Ġinitial": 4646,
            "icip": 4647,
            "ĠWow": 4648,
            "Ġenter": 4649,
            "Ġtasks": 4650,
            "Ġdistinct": 4651,
            "Ġdeeply": 4652,
            "Ġstation": 4653,
            "sec": 4654,
            "Ġpolicies": 4655,
            "Ġdire": 4656,
            "Ġstaff": 4657,
            "asts": 4658,
            "Ġopened": 4659,
            "Ġgraph": 4660,
            "Ġorganization": 4661,
            "ilience": 4662,
            "Ġfighting": 4663,
            "Ġpus": 4664,
            "see": 4665,
            "Ġwisdom": 4666,
            "igenous": 4667,
            "ĠOther": 4668,
            "Another": 4669,
            "Ġtherapy": 4670,
            "anish": 4671,
            "omb": 4672,
            "\\nand": 4673,
            "Ġchurch": 4674,
            "ĠJesus": 4675,
            "Exc": 4676,
            "Ġversion": 4677,
            "olved": 4678,
            "Ġillness": 4679,
            "Ġnutri": 4680,
            "Hi": 4681,
            "hab": 4682,
            "tering": 4683,
            "vention": 4684,
            "Ġadvant": 4685,
            "Ġlimit": 4686,
            "OK": 4687,
            "idst": 4688,
            "Ġapply": 4689,
            "ĠVal": 4690,
            "Ġreality": 4691,
            "Ġbroken": 4692,
            "nie": 4693,
            "Ġsac": 4694,
            "phas": 4695,
            "Ġcircum": 4696,
            "Ġempathy": 4697,
            "Ġgar": 4698,
            "AM": 4699,
            "Ġcovered": 4700,
            "Ġexhib": 4701,
            "uddenly": 4702,
            "Ġfloor": 4703,
            "Ġproperly": 4704,
            "Ġcooking": 4705,
            "Ġpun": 4706,
            "Ġextend": 4707,
            "ologists": 4708,
            "II": 4709,
            "aign": 4710,
            "inated": 4711,
            "Ġmad": 4712,
            "ĠMich": 4713,
            "Ġmeals": 4714,
            "Ġraised": 4715,
            "Ġputting": 4716,
            "Ġatmosphere": 4717,
            "Ġfully": 4718,
            "Ġpollution": 4719,
            "Ġguidance": 4720,
            "Ġtur": 4721,
            "Ġrule": 4722,
            "Ġadjust": 4723,
            "Ġexperts": 4724,
            "Ġmole": 4725,
            "Ġoccas": 4726,
            "Ġfigures": 4727,
            "Ġdy": 4728,
            "ĠJan": 4729,
            "Ġkindness": 4730,
            "-A": 4731,
            "ament": 4732,
            "Ġsexual": 4733,
            "Ġwhis": 4734,
            "Ġalright": 4735,
            "aps": 4736,
            "Ġemotional": 4737,
            "Ġgender": 4738,
            "Ġlabor": 4739,
            "ĠMc": 4740,
            "Ġlegal": 4741,
            "Ġmaintaining": 4742,
            "Ġkit": 4743,
            "ĠWhere": 4744,
            "itionally": 4745,
            "Ġcomfortable": 4746,
            "orough": 4747,
            "Ġfuck": 4748,
            "ĠOkay": 4749,
            "Ġconfident": 4750,
            "uit": 4751,
            "Ġinn": 4752,
            "ĠServ": 4753,
            "###": 4754,
            "Ġneighborhood": 4755,
            "-up": 4756,
            "irt": 4757,
            "Ġbusy": 4758,
            "Ġsunlight": 4759,
            "Ġprofession": 4760,
            "ero": 4761,
            "urance": 4762,
            "ĠAug": 4763,
            "term": 4764,
            "Ġexploration": 4765,
            "ails": 4766,
            "bered": 4767,
            "ĠLife": 4768,
            "Ġhonest": 4769,
            "Ġbrave": 4770,
            "Ġslightly": 4771,
            "ĠAc": 4772,
            "Ġshit": 4773,
            "hington": 4774,
            "ferences": 4775,
            "Ġserved": 4776,
            "Ġfaith": 4777,
            "Ġwebsite": 4778,
            "-g": 4779,
            "Ġbot": 4780,
            "ĠAnt": 4781,
            "Ġdelight": 4782,
            "Ġacqu": 4783,
            "ĠBlack": 4784,
            "Ġconsequences": 4785,
            "aven": 4786,
            "Ġfab": 4787,
            "bre": 4788,
            "Ġhol": 4789,
            "Ġteeth": 4790,
            "Ġstarts": 4791,
            "Ġelectr": 4792,
            "CH": 4793,
            "ĠHigh": 4794,
            "Ġtherefore": 4795,
            "Ġmetal": 4796,
            "Ġtypically": 4797,
            "Ġconstruct": 4798,
            "vis": 4799,
            "Ġban": 4800,
            "Ġnone": 4801,
            "Ġnuc": 4802,
            "Ġweap": 4803,
            "Ġassign": 4804,
            "Ġsolid": 4805,
            "Ġanswers": 4806,
            "ĠChristian": 4807,
            "Ġabsor": 4808,
            "urban": 4809,
            "Ġworse": 4810,
            "Ġspeech": 4811,
            "Ġchapter": 4812,
            "abetes": 4813,
            "ument": 4814,
            "ĠLucy": 4815,
            "Ġprevious": 4816,
            "Ar": 4817,
            "lam": 4818,
            "Ġbeat": 4819,
            "Ġsequ": 4820,
            "Ġlovely": 4821,
            "Ġmoments": 4822,
            "Ġautom": 4823,
            "ĠMaya": 4824,
            "Ġmilk": 4825,
            "ourage": 4826,
            "Tell": 4827,
            "Ġfacing": 4828,
            "anwhile": 4829,
            "ĠWilli": 4830,
            "ĠDid": 4831,
            "Ġprecious": 4832,
            "Ġremem": 4833,
            "Ġmissing": 4834,
            "Before": 4835,
            "Ġtight": 4836,
            "Ġinsect": 4837,
            "ĠIr": 4838,
            "antic": 4839,
            "ibilities": 4840,
            "Ġcream": 4841,
            "Course": 4842,
            "how": 4843,
            "Ġ+": 4844,
            "Ġcompre": 4845,
            "Ġcontract": 4846,
            "Ġcirc": 4847,
            "ani": 4848,
            "Ġtoward": 4849,
            "terday": 4850,
            "ĠMary": 4851,
            "Ġresilience": 4852,
            "Ġperspectives": 4853,
            "gi": 4854,
            "then": 4855,
            "ummy": 4856,
            "Ġlength": 4857,
            "AD": 4858,
            "Ġsoul": 4859,
            "ĠSan": 4860,
            "ĠRead": 4861,
            "Ġoffers": 4862,
            "inese": 4863,
            "Ġvisiting": 4864,
            "Ġpresented": 4865,
            "AY": 4866,
            "Ġfort": 4867,
            "Le": 4868,
            "erry": 4869,
            "Ġscene": 4870,
            "ĠExc": 4871,
            "Ġdedicated": 4872,
            "ĠDavid": 4873,
            "ĠAbsolutely": 4874,
            "Ġmeal": 4875,
            "Ġride": 4876,
            "ĠUse": 4877,
            "Ġtopic": 4878,
            "Ġdepending": 4879,
            "Ġhuh": 4880,
            "Ġliterature": 4881,
            "Ġelectricity": 4882,
            "ample": 4883,
            "Ġforgot": 4884,
            "Ġuns": 4885,
            "Ġcontains": 4886,
            "Ġdistrict": 4887,
            "ĠInstitute": 4888,
            "Ġcrazy": 4889,
            "Ġ#\\": 4890,
            "Ġjustice": 4891,
            "Ġsports": 4892,
            "bits": 4893,
            "eel": 4894,
            "icy": 4895,
            "Ġmeat": 4896,
            "Ġproced": 4897,
            "Ġvital": 4898,
            "Ġspect": 4899,
            "Ġmodels": 4900,
            "Ġprocesses": 4901,
            "ĠJohnson": 4902,
            "Ġtask": 4903,
            "book": 4904,
            "Ġign": 4905,
            "arter": 4906,
            "Ġinterview": 4907,
            "duces": 4908,
            "Ġpromise": 4909,
            "Ġillustr": 4910,
            "ĠTechn": 4911,
            ".com": 4912,
            "Wh": 4913,
            "atin": 4914,
            "Ġstone": 4915,
            "agement": 4916,
            "ĠHouse": 4917,
            "ĠOF": 4918,
            "Ġleads": 4919,
            "Ġleader": 4920,
            "ĠMaria": 4921,
            "-S": 4922,
            "ket": 4923,
            "ordinary": 4924,
            "Ġflat": 4925,
            "ĠProfessor": 4926,
            "ĠDevelop": 4927,
            "iety": 4928,
            "Ġconv": 4929,
            "Ġblock": 4930,
            "Ġrelax": 4931,
            "pril": 4932,
            "ĠMargot": 4933,
            "Ġpurs": 4934,
            "Ġcommunicate": 4935,
            "Ġcustomers": 4936,
            "Ġwatched": 4937,
            "Ġcateg": 4938,
            "aming": 4939,
            "ĠSur": 4940,
            "ĠJune": 4941,
            "Ġfeature": 4942,
            "Ġclassroom": 4943,
            "ĠProt": 4944,
            "ĠCommun": 4945,
            "Ġinspired": 4946,
            ",'": 4947,
            "ding": 4948,
            "tee": 4949,
            "ums": 4950,
            "ĠLord": 4951,
            "Ġcreation": 4952,
            "Ġadvanced": 4953,
            "Ġpicked": 4954,
            "Ġwitness": 4955,
            "rem": 4956,
            "Ġdisappe": 4957,
            "Ġbackground": 4958,
            "Ġwalls": 4959,
            "spect": 4960,
            "uous": 4961,
            "iments": 4962,
            "ĠTy": 4963,
            "ressed": 4964,
            "Ġcarried": 4965,
            "Ġappeared": 4966,
            "Really": 4967,
            "Ġdirection": 4968,
            "Ab": 4969,
            "Ġyours": 4970,
            "ements": 4971,
            "Ġhighly": 4972,
            "Stop": 4973,
            "Ġexisting": 4974,
            "Ġlibrary": 4975,
            "Wow": 4976,
            "oup": 4977,
            "omy": 4978,
            "Ġshoot": 4979,
            "ints": 4980,
            "Ġstandards": 4981,
            "ims": 4982,
            "Ġforever": 4983,
            "Ġmessages": 4984,
            "roduce": 4985,
            "rets": 4986,
            "Ġconcl": 4987,
            "ologist": 4988,
            "load": 4989,
            "Ġunusual": 4990,
            "craft": 4991,
            "Ġqual": 4992,
            "ohol": 4993,
            "Ġrefers": 4994,
            "Ġapprox": 4995,
            "Ġwet": 4996,
            "ĠSure": 4997,
            "ĠMor": 4998,
            "ĠGerman": 4999,
            "itage": 5000,
            "Ġconsult": 5001,
            "ounced": 5002,
            "Ġcapital": 5003,
            "Act": 5004,
            "Tr": 5005,
            "cohol": 5006,
            "Ġtim": 5007,
            "Ġtough": 5008,
            "ouds": 5009,
            "uman": 5010,
            "Ġcommand": 5011,
            "Ġmachines": 5012,
            "Ġbear": 5013,
            "Ġisland": 5014,
            "Ġcreative": 5015,
            "Ġterrit": 5016,
            "gy": 5017,
            "ĠGovern": 5018,
            "Ġsuppose": 5019,
            "Ġbattle": 5020,
            "Ġintrig": 5021,
            "ĠKeep": 5022,
            "Ġcreativity": 5023,
            "ĠDespite": 5024,
            "equ": 5025,
            "yl": 5026,
            "Ġyellow": 5027,
            "Ġsmell": 5028,
            "Ġstaying": 5029,
            "Ġlady": 5030,
            "chen": 5031,
            "lection": 5032,
            "ented": 5033,
            "Ġshut": 5034,
            "lessly": 5035,
            "Ġrecognize": 5036,
            "Ġawareness": 5037,
            "..\\": 5038,
            "ĠMat": 5039,
            "Ġbutter": 5040,
            "asty": 5041,
            "Ġuniverse": 5042,
            "Ġclin": 5043,
            "Ġprepare": 5044,
            "Ġextraordinary": 5045,
            "onic": 5046,
            "Ġrid": 5047,
            "osh": 5048,
            "Ġsmile": 5049,
            "Ġinfection": 5050,
            "Ġpainting": 5051,
            "ĠTrans": 5052,
            "ĠWashington": 5053,
            "Listen": 5054,
            "estic": 5055,
            "Ġupset": 5056,
            "Ġcorner": 5057,
            "Ġmathemat": 5058,
            "urally": 5059,
            "ĠSince": 5060,
            "ulated": 5061,
            "ĠBoth": 5062,
            "ĠHarm": 5063,
            "ĠDad": 5064,
            "ĠFrance": 5065,
            "Ġdegrees": 5066,
            "Key": 5067,
            "Ġvia": 5068,
            "Ġemphas": 5069,
            "Ġdrawing": 5070,
            "Ġvit": 5071,
            "Ġspring": 5072,
            "anged": 5073,
            "Ġhealthcare": 5074,
            "Ġcourt": 5075,
            "ĠExpl": 5076,
            "Ġresponsibility": 5077,
            "Ġpounds": 5078,
            "Ġmere": 5079,
            "Ġpregn": 5080,
            "Ġpromote": 5081,
            "Ġtesting": 5082,
            "ĠPlus": 5083,
            "Ġfantastic": 5084,
            "riage": 5085,
            "Ġvibrant": 5086,
            "'S": 5087,
            "Sure": 5088,
            "mar": 5089,
            "Ġdouble": 5090,
            "imal": 5091,
            "anted": 5092,
            "odes": 5093,
            "Ġphilos": 5094,
            "Ġmuscles": 5095,
            "Ġafford": 5096,
            "Ġapplications": 5097,
            "gment": 5098,
            "Ġlie": 5099,
            "Pl": 5100,
            "heart": 5101,
            "Ġconstruction": 5102,
            "Ġiniti": 5103,
            "Ġdestroy": 5104,
            "Ġwelcome": 5105,
            "Ġur": 5106,
            "Ġpages": 5107,
            "Ġhighlight": 5108,
            "Ġlistened": 5109,
            "Ġprofessor": 5110,
            "Ġfemale": 5111,
            "ipe": 5112,
            "Ġsight": 5113,
            "Ġmal": 5114,
            "Ġden": 5115,
            "ĠDNA": 5116,
            "Ġnumerous": 5117,
            "AP": 5118,
            "Con": 5119,
            "Ġband": 5120,
            "Ġobst": 5121,
            "Ġphr": 5122,
            "Ġeconomy": 5123,
            "ij": 5124,
            "uk": 5125,
            "Ġmir": 5126,
            "ocking": 5127,
            "Ġdreams": 5128,
            "ĠTV": 5129,
            "Ġamidst": 5130,
            "Ġacadem": 5131,
            "Ġreleased": 5132,
            "uary": 5133,
            "Ġseed": 5134,
            "Ġscale": 5135,
            "Ġassum": 5136,
            "Ġlands": 5137,
            "Ġbloody": 5138,
            "Ġintellig": 5139,
            "-r": 5140,
            "cest": 5141,
            "lin": 5142,
            "Ġtired": 5143,
            "Ġliqu": 5144,
            "Ġ*\\": 5145,
            "Ġsurrounding": 5146,
            "tt": 5147,
            "Ġfirm": 5148,
            "Ġnor": 5149,
            "Ġtreated": 5150,
            "Ġtemperatures": 5151,
            "Ġplatform": 5152,
            "Ġcircumst": 5153,
            "',": 5154,
            "do": 5155,
            "upp": 5156,
            "Ġmale": 5157,
            "Ġdial": 5158,
            "Ġdrop": 5159,
            "rogen": 5160,
            "ĠMake": 5161,
            "Ġrough": 5162,
            "ossible": 5163,
            "ĠCharlie": 5164,
            "Ġcup": 5165,
            "Ġbrand": 5166,
            "lls": 5167,
            "Ġmob": 5168,
            "ĠSep": 5169,
            "ĠHi": 5170,
            "Ġseeking": 5171,
            "ĠUnion": 5172,
            "cellent": 5173,
            "ipped": 5174,
            "Ġpush": 5175,
            "Ġwhom": 5176,
            "osen": 5177,
            "ĠLaw": 5178,
            "ĠOct": 5179,
            "Ġplanned": 5180,
            "encing": 5181,
            "ĠMark": 5182,
            "Ġexec": 5183,
            "ĠJe": 5184,
            "Ġnative": 5185,
            "ĠMod": 5186,
            "aker": 5187,
            "Ġspaces": 5188,
            "ĠChinese": 5189,
            "Ġcrow": 5190,
            "-I": 5191,
            "Pe": 5192,
            "Ġchec": 5193,
            "night": 5194,
            "ĠSat": 5195,
            "esson": 5196,
            "Ġobtain": 5197,
            "Ġpatience": 5198,
            "Ġsongs": 5199,
            "Ġrenew": 5200,
            "ching": 5201,
            "ĠGot": 5202,
            "Ġexclaimed": 5203,
            "Ġdim": 5204,
            "oty": 5205,
            "rael": 5206,
            "ĠRoman": 5207,
            "Ġarms": 5208,
            "Ġfunctions": 5209,
            "Ġfinish": 5210,
            "appy": 5211,
            "Ġsatis": 5212,
            "ĠMexico": 5213,
            "hors": 5214,
            "Ġnerv": 5215,
            "ĠPal": 5216,
            "Ġlights": 5217,
            "Ġforeign": 5218,
            "Ġthri": 5219,
            "Ġpray": 5220,
            "Ġcommer": 5221,
            "Ġproperties": 5222,
            "Ġreligion": 5223,
            "reement": 5224,
            "Ġrhy": 5225,
            "wered": 5226,
            "Ġcounty": 5227,
            "Ġpresident": 5228,
            "Ġdoubt": 5229,
            "pen": 5230,
            "Ġbrown": 5231,
            "Ġtechnologies": 5232,
            "Ġrisks": 5233,
            "Ġyesterday": 5234,
            "ĠJapanese": 5235,
            "Ġroot": 5236,
            "Ġcenturies": 5237,
            "Ġinvolve": 5238,
            "Ġstatement": 5239,
            "ĠJewish": 5240,
            "Which": 5241,
            "leep": 5242,
            "Ġwearing": 5243,
            "ĠPet": 5244,
            "Ġsurgery": 5245,
            "Ġstret": 5246,
            "\\\\": 5247,
            "wood": 5248,
            "\\nthe": 5249,
            "Ġrot": 5250,
            "ĠBecause": 5251,
            "Ġbroke": 5252,
            "During": 5253,
            "SE": 5254,
            "pal": 5255,
            "Ġmas": 5256,
            "Ġworldwide": 5257,
            "Ġvisited": 5258,
            "Does": 5259,
            ";\\": 5260,
            "Ġurban": 5261,
            "Ġspl": 5262,
            "Ġcouncil": 5263,
            "Ġchick": 5264,
            "ĠGo": 5265,
            "Ġcareer": 5266,
            "Ġencourage": 5267,
            "?\"}Ċ": 5268,
            "Bl": 5269,
            "iat": 5270,
            "Ġtips": 5271,
            "ĠSal": 5272,
            "ocked": 5273,
            "Ġflo": 5274,
            "Ġcampaign": 5275,
            "Ġeggs": 5276,
            "-term": 5277,
            "Would": 5278,
            "hest": 5279,
            "Ġloud": 5280,
            "Ġartist": 5281,
            "Ġmotion": 5282,
            "Ġdescribed": 5283,
            "Se": 5284,
            "Ġnations": 5285,
            "ĠAlso": 5286,
            "Ġkeeps": 5287,
            "Ġvision": 5288,
            "Ġcapac": 5289,
            "Ġbread": 5290,
            "Ġfreedom": 5291,
            "Ġnarr": 5292,
            "Ġlies": 5293,
            "ĠGet": 5294,
            "Ġbeloved": 5295,
            "ĠVir": 5296,
            "Ġcreates": 5297,
            "Ġhyp": 5298,
            "gal": 5299,
            "Ġthin": 5300,
            "Ġpartners": 5301,
            "Ġprison": 5302,
            "Ġgrav": 5303,
            "upid": 5304,
            "Ġappears": 5305,
            "Ġsentence": 5306,
            "field": 5307,
            "ĠTex": 5308,
            "elve": 5309,
            "agues": 5310,
            "Ġusual": 5311,
            "Ġanybody": 5312,
            "Ġroots": 5313,
            "arsh": 5314,
            "Ġmillions": 5315,
            "porary": 5316,
            "Ġestablish": 5317,
            "asp": 5318,
            "ĠIN": 5319,
            "ĠLou": 5320,
            "formation": 5321,
            "Ġhappiness": 5322,
            "Ġdiversity": 5323,
            "Ġbringing": 5324,
            "Ġglad": 5325,
            "Ġentirely": 5326,
            "Ġprotein": 5327,
            "Ġsettlement": 5328,
            "Am": 5329,
            "ux": 5330,
            "asy": 5331,
            "Ġplayers": 5332,
            "Ġmeasures": 5333,
            "Gu": 5334,
            "fortunately": 5335,
            "whel": 5336,
            "Ġ...": 5337,
            "ĠGreek": 5338,
            "Ġanywhere": 5339,
            "Ġseek": 5340,
            "Ġdecre": 5341,
            "Ġtraffic": 5342,
            "Ġaloud": 5343,
            "Ġpreser": 5344,
            "Ġswim": 5345,
            "oom": 5346,
            "ĠTur": 5347,
            "Ġclouds": 5348,
            "Ġsalt": 5349,
            "ĠAugust": 5350,
            "lder": 5351,
            "unning": 5352,
            "Ġenem": 5353,
            "Ġreports": 5354,
            "Ġregions": 5355,
            "Ġframe": 5356,
            "-old": 5357,
            "dent": 5358,
            "Ġresource": 5359,
            "Ġincl": 5360,
            "Ġacid": 5361,
            "Ġreaders": 5362,
            "Ġproposed": 5363,
            "works": 5364,
            "using": 5365,
            "usive": 5366,
            "elf": 5367,
            "Ġdriving": 5368,
            "know": 5369,
            "Ġclimb": 5370,
            "ya": 5371,
            "Ġwealth": 5372,
            "ĠWater": 5373,
            "Ġvent": 5374,
            "Ġsociet": 5375,
            "Ġoxy": 5376,
            "Ġhole": 5377,
            "Ġabilities": 5378,
            "elp": 5379,
            "Ġupd": 5380,
            "akers": 5381,
            "Ġpresence": 5382,
            "Ġraise": 5383,
            "coming": 5384,
            "Ġexpression": 5385,
            "/\\/": 5386,
            "Over": 5387,
            "Ġtail": 5388,
            "Ġbrief": 5389,
            "Ġrul": 5390,
            "being": 5391,
            "Ġentered": 5392,
            "Ġmemories": 5393,
            "Ġidentified": 5394,
            "Ġsoldiers": 5395,
            "Ġdegree": 5396,
            "Ġhate": 5397,
            "ĠBilly": 5398,
            "Ġclosed": 5399,
            ":\\/\\/": 5400,
            "Ġclasses": 5401,
            "comes": 5402,
            "Ġsurvive": 5403,
            "orial": 5404,
            "ena": 5405,
            "ĠEast": 5406,
            "Ġadvoc": 5407,
            "ĠCreek": 5408,
            "unte": 5409,
            "Ġcombined": 5410,
            "Ġlatest": 5411,
            "Ġremembered": 5412,
            "Des": 5413,
            "ompl": 5414,
            "orses": 5415,
            "Ġmovements": 5416,
            "Ġenjoyed": 5417,
            "ĠSystem": 5418,
            "ĠEducation": 5419,
            "under": 5420,
            "Ġformer": 5421,
            "Ġdrinking": 5422,
            "Ġinvolving": 5423,
            "Ġder": 5424,
            "Ġmassive": 5425,
            "Ġcomplicated": 5426,
            "Ġcredit": 5427,
            "Mar": 5428,
            "iable": 5429,
            "Ġtun": 5430,
            "Ġreducing": 5431,
            "ida": 5432,
            "ĠMarch": 5433,
            "Ġcalls": 5434,
            "rains": 5435,
            "Ġstreets": 5436,
            "Ġcollaboration": 5437,
            "Sam": 5438,
            "pret": 5439,
            "Ġfaces": 5440,
            "Ġphen": 5441,
            "ĠApril": 5442,
            "ober": 5443,
            "Ġeverywhere": 5444,
            "-e": 5445,
            "TH": 5446,
            "road": 5447,
            "semb": 5448,
            "ĠLa": 5449,
            "Ġsecure": 5450,
            "Ġevolution": 5451,
            "Ġpossess": 5452,
            "Nothing": 5453,
            "Ġconcerned": 5454,
            "Ġmotor": 5455,
            "Ġconversations": 5456,
            "bl": 5457,
            "aked": 5458,
            "oyal": 5459,
            "Ġrivers": 5460,
            "Ġengineering": 5461,
            "osystem": 5462,
            "ĠHarmony": 5463,
            "Give": 5464,
            "ĠAh": 5465,
            ".g": 5466,
            "isl": 5467,
            "ours": 5468,
            "Ġchosen": 5469,
            "ĠSpanish": 5470,
            "ĠEmily": 5471,
            "Ġmountain": 5472,
            "Ġbone": 5473,
            "ĠSol": 5474,
            "eline": 5475,
            "Ġotherwise": 5476,
            "Ġflag": 5477,
            "Ġaffects": 5478,
            "ĠQue": 5479,
            "Ġinitially": 5480,
            "Ġapplication": 5481,
            "ĠAustralia": 5482,
            "found": 5483,
            "vision": 5484,
            "Ġlunch": 5485,
            "Ġsuc": 5486,
            "ĠSimilar": 5487,
            "Per": 5488,
            "bal": 5489,
            "Ġancest": 5490,
            "Ġconsid": 5491,
            "Ġexposure": 5492,
            "Ġoccurs": 5493,
            "Ġsudden": 5494,
            "ĠTexas": 5495,
            "\\\",": 5496,
            "osite": 5497,
            "Ġdecades": 5498,
            "Ġanswered": 5499,
            "Ġalternative": 5500,
            "Ġseat": 5501,
            "Ġplastic": 5502,
            "Ġoffering": 5503,
            "Ġcoal": 5504,
            "Ġparticles": 5505,
            "ĠInternational": 5506,
            "Ġmysterious": 5507,
            "Ġenthusi": 5508,
            "Was": 5509,
            "Ġiron": 5510,
            "rey": 5511,
            "Ġfault": 5512,
            "Ġfolks": 5513,
            "Mhm": 5514,
            "etry": 5515,
            "Ġoccup": 5516,
            "Ġbillion": 5517,
            "Ġapproximately": 5518,
            ".C": 5519,
            "Ġ!\\": 5520,
            "Ġmax": 5521,
            "Ġalcohol": 5522,
            "ĠDa": 5523,
            "ĠDisc": 5524,
            "ĠJour": 5525,
            "Ġgoods": 5526,
            "Ġanxiety": 5527,
            "ek": 5528,
            "iot": 5529,
            "Ġspending": 5530,
            "Ġeducational": 5531,
            "Ġfairly": 5532,
            "Ġcarrying": 5533,
            "Ġtissue": 5534,
            "Ġschol": 5535,
            "essel": 5536,
            "ĠCr": 5537,
            "Ġremove": 5538,
            "Ġskill": 5539,
            "Ġdiabetes": 5540,
            "Ġforests": 5541,
            "Ġcircumstances": 5542,
            "eath": 5543,
            "Ġlun": 5544,
            "ander": 5545,
            "Ġstruck": 5546,
            "Ġtales": 5547,
            "Ġsets": 5548,
            "Ġtransfer": 5549,
            "Ġsmoke": 5550,
            "Ġcopy": 5551,
            "Ġexcitedly": 5552,
            "Ġcomprehens": 5553,
            "ford": 5554,
            "omic": 5555,
            "ading": 5556,
            "Ġedge": 5557,
            "ĠGermany": 5558,
            "Ġbegins": 5559,
            "Ġwest": 5560,
            "Ġfro": 5561,
            "ĠIS": 5562,
            "ĠCor": 5563,
            "Ġtwice": 5564,
            "Ġflood": 5565,
            "Ġimproving": 5566,
            "Ġbasis": 5567,
            "Ġdescribe": 5568,
            "rome": 5569,
            "Ġthirty": 5570,
            "bert": 5571,
            "Ġfriendship": 5572,
            "ographic": 5573,
            "Ġkitchen": 5574,
            "Res": 5575,
            "olf": 5576,
            "Ġsole": 5577,
            "Ġimpossible": 5578,
            "Ġtowns": 5579,
            "ĠBefore": 5580,
            "Ġdealing": 5581,
            "Ġaccurate": 5582,
            "eding": 5583,
            "Ġpig": 5584,
            "acles": 5585,
            "Ġexcess": 5586,
            "Ġroles": 5587,
            "Ġdesigns": 5588,
            "ĠIsrael": 5589,
            "Ġmotiv": 5590,
            "Ġobserved": 5591,
            "Ġsorts": 5592,
            "Ġwine": 5593,
            "Ġcab": 5594,
            "Ġshel": 5595,
            "Ġindic": 5596,
            "Ġprotecting": 5597,
            "arrow": 5598,
            "uting": 5599,
            "ĠST": 5600,
            "ĠAccording": 5601,
            "ĠMet": 5602,
            "place": 5603,
            "ĠRich": 5604,
            "Ġsav": 5605,
            "Ġsafely": 5606,
            "mes": 5607,
            "Ġflying": 5608,
            "Ġsty": 5609,
            "ĠAss": 5610,
            "raw": 5611,
            "Ġrac": 5612,
            "ĠJames": 5613,
            "Ġaccompl": 5614,
            "Ġenjoying": 5615,
            "Ġcutting": 5616,
            "Mom": 5617,
            "cast": 5618,
            "fall": 5619,
            "nic": 5620,
            "resp": 5621,
            "Ġperfectly": 5622,
            "Ġreminded": 5623,
            "Ġaudience": 5624,
            "she": 5625,
            "Ġcore": 5626,
            "ita": 5627,
            "anch": 5628,
            "Ġdust": 5629,
            "Ġhung": 5630,
            "atell": 5631,
            "ĠWill": 5632,
            "Ġdogs": 5633,
            "eles": 5634,
            "omething": 5635,
            "ĠDesmond": 5636,
            "Ġgained": 5637,
            "Ġboo": 5638,
            "Ġpair": 5639,
            "Ġhat": 5640,
            "Ġimproved": 5641,
            "Ġwildlife": 5642,
            "uate": 5643,
            "Ġ]\\": 5644,
            "Ġcounter": 5645,
            "Ġdishes": 5646,
            "Ġeveryday": 5647,
            "Ġroof": 5648,
            "Ġemissions": 5649,
            "Ġfocusing": 5650,
            "Ġharmful": 5651,
            "Ġsharp": 5652,
            "iar": 5653,
            "aded": 5654,
            "olic": 5655,
            "aret": 5656,
            "Ġapplied": 5657,
            "Ġadventures": 5658,
            "-B": 5659,
            "Will": 5660,
            "friend": 5661,
            "Ġcooper": 5662,
            "ĠWr": 5663,
            "Ġvoc": 5664,
            "Ġvary": 5665,
            "ĠPaul": 5666,
            "ĠOb": 5667,
            "Ġtradition": 5668,
            "Ġemergency": 5669,
            "Cur": 5670,
            "atically": 5671,
            "rian": 5672,
            "Ġru": 5673,
            "ĠFam": 5674,
            "Ġdetermination": 5675,
            "tember": 5676,
            "Ġfifty": 5677,
            "Ġoxygen": 5678,
            "kin": 5679,
            "pic": 5680,
            "Ġlosing": 5681,
            "ĠBell": 5682,
            "Ġcriter": 5683,
            "Ġradiation": 5684,
            "Ġlayer": 5685,
            "Ġstruggle": 5686,
            "Ġmixed": 5687,
            "Her": 5688,
            "Ġdat": 5689,
            "ĠMount": 5690,
            "icky": 5691,
            "Ġcurrently": 5692,
            "Ġchemicals": 5693,
            "Ġinstructions": 5694,
            "cri": 5695,
            "Ġnobody": 5696,
            "ste": 5697,
            "ĠMia": 5698,
            "istry": 5699,
            "Ġgenetic": 5700,
            "Ġtechnique": 5701,
            "bye": 5702,
            "Ġrepresents": 5703,
            "Man": 5704,
            "away": 5705,
            "ien": 5706,
            "rition": 5707,
            "va": 5708,
            "Ġbought": 5709,
            "Ġfill": 5710,
            "ald": 5711,
            "Ġdisorder": 5712,
            "Ġsecrets": 5713,
            "Ġsolving": 5714,
            "Ġadvance": 5715,
            "Ġconcern": 5716,
            "Ġinternet": 5717,
            "Ġfarmers": 5718,
            "Ġauthority": 5719,
            "ĠTwo": 5720,
            "Ġscat": 5721,
            "Ġcreature": 5722,
            "Excuse": 5723,
            "Ġhorses": 5724,
            "ĠIT": 5725,
            "ifts": 5726,
            "Ġrat": 5727,
            "ĠPeter": 5728,
            "Ġyounger": 5729,
            "Ġamounts": 5730,
            "Ġcompetition": 5731,
            "Ġextremely": 5732,
            "ĠCaptain": 5733,
            "PA": 5734,
            "ege": 5735,
            "gu": 5736,
            "ague": 5737,
            "Ġcomment": 5738,
            "arts": 5739,
            "ĠUp": 5740,
            "Ġcalling": 5741,
            "Ġended": 5742,
            "Ġencoun": 5743,
            "Ġterrible": 5744,
            "Ġregularly": 5745,
            "Ġhoping": 5746,
            "Ġecosystem": 5747,
            "Ġpond": 5748,
            "Ġbell": 5749,
            "Ġvul": 5750,
            "Ġlegs": 5751,
            "Ġhadn": 5752,
            "Ġappoint": 5753,
            "Ġopening": 5754,
            "force": 5755,
            "Te": 5756,
            "enth": 5757,
            "Ġparties": 5758,
            "Ġrocks": 5759,
            "ĠAssoci": 5760,
            "Ġgeneration": 5761,
            "Ġcamera": 5762,
            "Ġnutrients": 5763,
            "Ġweb": 5764,
            "Ġexcellent": 5765,
            "unny": 5766,
            "Ġchose": 5767,
            "Ġcommonly": 5768,
            "Ġmountains": 5769,
            "ĠInternet": 5770,
            "Timmy": 5771,
            "Ġfederal": 5772,
            "oma": 5773,
            "ionally": 5774,
            "ophy": 5775,
            "ĠKore": 5776,
            "Through": 5777,
            "Ġmuscle": 5778,
            "ĠTra": 5779,
            "ĠRel": 5780,
            "Ġunlike": 5781,
            "Ġages": 5782,
            "ternal": 5783,
            "Ġminor": 5784,
            "Ġpopulations": 5785,
            "Ġsustainable": 5786,
            "eration": 5787,
            "Ġcards": 5788,
            "Ġvot": 5789,
            "Ġvessel": 5790,
            "Ġdisag": 5791,
            "assion": 5792,
            "Ġdiscrim": 5793,
            "ĠSoci": 5794,
            "Ġscientist": 5795,
            "Ph": 5796,
            "cause": 5797,
            "gle": 5798,
            "anes": 5799,
            "Ġhoney": 5800,
            "Ġnest": 5801,
            "Ġreduced": 5802,
            "Ġplenty": 5803,
            "ĠOwl": 5804,
            "Ġintric": 5805,
            "Ġoverwhel": 5806,
            "ĠInter": 5807,
            "Ġtransportation": 5808,
            "org": 5809,
            "Ġdeli": 5810,
            "Ġchat": 5811,
            "cipl": 5812,
            "Ġconservation": 5813,
            "Ġpossibly": 5814,
            "Ġwaters": 5815,
            "ocolate": 5816,
            "Ġconcentr": 5817,
            "PS": 5818,
            "lla": 5819,
            "Ġhes": 5820,
            "Ġliked": 5821,
            "umber": 5822,
            "angers": 5823,
            "enses": 5824,
            "Ġsched": 5825,
            "ube": 5826,
            "Ġviolence": 5827,
            "Ġniche": 5828,
            "zen": 5829,
            "Ġmyst": 5830,
            "Ġpointed": 5831,
            "ĠEnvironment": 5832,
            "Ġrevealed": 5833,
            "According": 5834,
            "chers": 5835,
            "ĠMil": 5836,
            "ĠWestern": 5837,
            "iveness": 5838,
            "ĠInc": 5839,
            "Ġauthors": 5840,
            "ognitive": 5841,
            "Ġbudget": 5842,
            "CT": 5843,
            "opy": 5844,
            "Ġpoly": 5845,
            "hetic": 5846,
            "Ġsen": 5847,
            "ato": 5848,
            "quir": 5849,
            "Ġoutcomes": 5850,
            "ĠChurch": 5851,
            "Ġgene": 5852,
            "Ġhide": 5853,
            "urt": 5854,
            "Ġwrit": 5855,
            "Ġdiscussed": 5856,
            "Ġvolunte": 5857,
            "Ġrelevant": 5858,
            "Ġordinary": 5859,
            "Ġguidelines": 5860,
            "Ġfle": 5861,
            "ĠBra": 5862,
            "ĠDist": 5863,
            "Ġcozy": 5864,
            "Ġhearts": 5865,
            "iki": 5866,
            "Ġannual": 5867,
            "Ġangry": 5868,
            "Qu": 5869,
            "icking": 5870,
            "ĠFeb": 5871,
            "Ġincome": 5872,
            "Ġempt": 5873,
            "Ġcris": 5874,
            "ĠRev": 5875,
            "Introduction": 5876,
            "Ġcrops": 5877,
            "Ġtro": 5878,
            "edia": 5879,
            "Ġfert": 5880,
            "Ġgal": 5881,
            "Ġkiss": 5882,
            "Ġalt": 5883,
            "Ġnoise": 5884,
            "Ġblocks": 5885,
            "Ġstudied": 5886,
            "ĠSocial": 5887,
            "ASA": 5888,
            "Ġlandscape": 5889,
            "-th": 5890,
            "Ġdepression": 5891,
            "====": 5892,
            "Ġabsorb": 5893,
            "which": 5894,
            "erves": 5895,
            "Ġgiant": 5896,
            "ĠStep": 5897,
            "Ġcollected": 5898,
            "Ġsubjects": 5899,
            "Lesson": 5900,
            "Ġtum": 5901,
            "apy": 5902,
            "Ġthrow": 5903,
            "rence": 5904,
            "Ġharmony": 5905,
            "ĠEmma": 5906,
            "Ġperspective": 5907,
            "burg": 5908,
            "Ġchief": 5909,
            "Ġspr": 5910,
            "Ġconstant": 5911,
            "Ġprofessionals": 5912,
            "Ġnuclear": 5913,
            "Ġnervous": 5914,
            "Ġphenomen": 5915,
            "ora": 5916,
            "Ġunless": 5917,
            "Ġexplan": 5918,
            "Ġcapable": 5919,
            "Ġbirthday": 5920,
            "ĠMichael": 5921,
            "ipping": 5922,
            "Ġeast": 5923,
            "Ġcontem": 5924,
            "Ġhousehold": 5925,
            "Ġsurprised": 5926,
            "Ġastron": 5927,
            "People": 5928,
            "reate": 5929,
            "Ġhabits": 5930,
            "Ġpartner": 5931,
            "Ġflower": 5932,
            "Ġalongside": 5933,
            "Ġreb": 5934,
            "ĠMiddle": 5935,
            "Ġdirector": 5936,
            "Ġstrengthen": 5937,
            "Ġmaxim": 5938,
            "Ġoption": 5939,
            "Ġinner": 5940,
            "Ġnurs": 5941,
            "iration": 5942,
            "Ġarrest": 5943,
            "Ġteen": 5944,
            "ĠIts": 5945,
            "Those": 5946,
            "ĠProgram": 5947,
            "Ġcha": 5948,
            "Ġrestaur": 5949,
            "Ġhundreds": 5950,
            "Ġflex": 5951,
            "Ġdu": 5952,
            "ĠMa": 5953,
            "Ġshoes": 5954,
            "Ġsimpl": 5955,
            "ĠIslam": 5956,
            "Ġelement": 5957,
            "Ġmanaging": 5958,
            "Ġscenar": 5959,
            "ĠVirgin": 5960,
            "Since": 5961,
            "Ġtox": 5962,
            "cel": 5963,
            "Ġprove": 5964,
            "umn": 5965,
            "Ġarmy": 5966,
            "ception": 5967,
            "Ġtreatments": 5968,
            "ĠExcited": 5969,
            "ĠAND": 5970,
            "Ġdistribution": 5971,
            "Ġmolec": 5972,
            "Ġbones": 5973,
            "Ġhang": 5974,
            "Ġstupid": 5975,
            "Ġbrilli": 5976,
            "Ġremark": 5977,
            "ĠIsland": 5978,
            "Ġpaying": 5979,
            "Ġpromoting": 5980,
            "RO": 5981,
            "UT": 5982,
            "yc": 5983,
            "Ġneck": 5984,
            "abilities": 5985,
            "Ġacknow": 5986,
            "Ġpassing": 5987,
            "Ġmarvel": 5988,
            "Ġorigin": 5989,
            "Great": 5990,
            "Ġneither": 5991,
            "Ġintroduce": 5992,
            "Ġamb": 5993,
            "Ġcrime": 5994,
            "Ġmonit": 5995,
            "Ġoccurred": 5996,
            "Ġstatus": 5997,
            "Ġfabric": 5998,
            "Sometimes": 5999,
            "isher": 6000,
            "Ġbeings": 6001,
            "ĠCong": 6002,
            "Ġdoors": 6003,
            "Ġplot": 6004,
            "---\\": 6005,
            "Ġdocuments": 6006,
            "ĠGeneral": 6007,
            "Ġresistance": 6008,
            "More": 6009,
            "fast": 6010,
            "ĠChic": 6011,
            "cont": 6012,
            "apping": 6013,
            "Ġparticipants": 6014,
            "Ġsample": 6015,
            "Ġexchange": 6016,
            "rics": 6017,
            "Ġske": 6018,
            "Ġthread": 6019,
            "Ġheight": 6020,
            "Ġchair": 6021,
            "ensity": 6022,
            "Ġflight": 6023,
            "Ġfiles": 6024,
            "Ġstrategy": 6025,
            "Ġrequirements": 6026,
            "ĠGeorg": 6027,
            "Ġproteins": 6028,
            "Ġadvantage": 6029,
            "Ġforced": 6030,
            "ago": 6031,
            "Ġwheel": 6032,
            "Ġphotograph": 6033,
            "Ġindustrial": 6034,
            "Ġfrequently": 6035,
            "Ġopinion": 6036,
            "lers": 6037,
            "Ġhorm": 6038,
            "igration": 6039,
            "Ġmostly": 6040,
            "ĠPlan": 6041,
            "ĠHarmonyville": 6042,
            "'T": 6043,
            "Ġcher": 6044,
            "ito": 6045,
            "Ġthorough": 6046,
            "Ġrice": 6047,
            "ĠLook": 6048,
            "ĠAsia": 6049,
            "Ġmovies": 6050,
            "orter": 6051,
            "ĠCO": 6052,
            "ĠDef": 6053,
            "Ġinterpret": 6054,
            "Ġsettled": 6055,
            "ĠAdditionally": 6056,
            "Ġconsidering": 6057,
            "han": 6058,
            "orage": 6059,
            "ache": 6060,
            "ĠAut": 6061,
            "ĠHy": 6062,
            "ĠArch": 6063,
            "Ġworksh": 6064,
            "-time": 6065,
            "Ġinnovative": 6066,
            "ION": 6067,
            "kins": 6068,
            "pa": 6069,
            "enry": 6070,
            "icians": 6071,
            "ĠPort": 6072,
            "ĠLatin": 6073,
            "ĠOld": 6074,
            "Ġspin": 6075,
            "Ġprices": 6076,
            "Ġstands": 6077,
            "Ġpreparing": 6078,
            "Ġmistake": 6079,
            "Ġpowers": 6080,
            "eeling": 6081,
            "-C": 6082,
            "cing": 6083,
            "point": 6084,
            "ĠCarl": 6085,
            "Ġselling": 6086,
            "Ġspark": 6087,
            "Ġdynam": 6088,
            "ĠOctober": 6089,
            "vas": 6090,
            "amps": 6091,
            "ĠSet": 6092,
            "ĠSund": 6093,
            "ĠDec": 6094,
            "ĠFore": 6095,
            "ĠNat": 6096,
            "Ġheritage": 6097,
            "Ġorganic": 6098,
            "ĠSmith": 6099,
            "Ġvulner": 6100,
            "En": 6101,
            "US": 6102,
            "hand": 6103,
            "ĠAv": 6104,
            "ĠME": 6105,
            "ĠJuly": 6106,
            "ĠInte": 6107,
            "Ġfewer": 6108,
            ".)": 6109,
            "VE": 6110,
            "ĠSer": 6111,
            "ĠPac": 6112,
            "Ġdish": 6113,
            "Although": 6114,
            "Ġsupplies": 6115,
            "Ġarticles": 6116,
            "Ġresulting": 6117,
            "cientists": 6118,
            "aration": 6119,
            "Ġforth": 6120,
            "Ġplate": 6121,
            "avors": 6122,
            "pson": 6123,
            "Most": 6124,
            "Tw": 6125,
            "Ġmood": 6126,
            "Ġstro": 6127,
            "ĠSuddenly": 6128,
            "olving": 6129,
            "ĠDet": 6130,
            "ĠOK": 6131,
            "ovember": 6132,
            "Ġsignal": 6133,
            "Ġinformed": 6134,
            "vironments": 6135,
            "Ġopposite": 6136,
            "Ġappearance": 6137,
            "Ġreferred": 6138,
            "ĠSimilarly": 6139,
            "Ġid": 6140,
            "itz": 6141,
            "Ġlying": 6142,
            "Ġdeliver": 6143,
            "obb": 6144,
            "phone": 6145,
            "Ġmuse": 6146,
            "ĠCentral": 6147,
            "IM": 6148,
            "Ġaid": 6149,
            "astern": 6150,
            "Ġnewfound": 6151,
            "Ġcoord": 6152,
            "Ġnaturally": 6153,
            "Ġoperations": 6154,
            "Ġdivided": 6155,
            "ĠAbout": 6156,
            "ĠStudents": 6157,
            "Many": 6158,
            "da": 6159,
            "iance": 6160,
            "tles": 6161,
            "Ġtick": 6162,
            "Ġharder": 6163,
            "Ġincreases": 6164,
            "Ġencounter": 6165,
            "Ġobserv": 6166,
            "Ġnewsp": 6167,
            "Ġbarri": 6168,
            "Ġbreathing": 6169,
            "Ġenhance": 6170,
            "uilding": 6171,
            "oving": 6172,
            "inations": 6173,
            "Ġfest": 6174,
            "oosing": 6175,
            "uments": 6176,
            "ruary": 6177,
            "Ġefficient": 6178,
            "Ġmoves": 6179,
            "ancer": 6180,
            "Ġexpensive": 6181,
            "Ġtreating": 6182,
            "Ġbeneath": 6183,
            "ĠCommon": 6184,
            "Ġobserving": 6185,
            "Ġconflicts": 6186,
            "atoes": 6187,
            "ado": 6188,
            "ĠRight": 6189,
            "ĠChildren": 6190,
            "Ġcharacteristics": 6191,
            "John": 6192,
            "Very": 6193,
            "mitted": 6194,
            "Ġpapers": 6195,
            "ĠHaw": 6196,
            "Ġtwelve": 6197,
            "Ġcountless": 6198,
            "ructure": 6199,
            "Ġdiscussions": 6200,
            "Ġcrowd": 6201,
            "LD": 6202,
            "yn": 6203,
            "hero": 6204,
            "Ġlic": 6205,
            "Ġacting": 6206,
            "Ġends": 6207,
            "Ġhighest": 6208,
            "Ġassistance": 6209,
            "Ġ...\\": 6210,
            "Ġbes": 6211,
            "Ġflour": 6212,
            "Ġsurvey": 6213,
            "Ġfactor": 6214,
            "Ġbreaking": 6215,
            "Ġorganized": 6216,
            "Ġmulti": 6217,
            "Ġsensitive": 6218,
            "ĠSeptember": 6219,
            "Sir": 6220,
            "Ġtape": 6221,
            "Ġfoss": 6222,
            "unction": 6223,
            "Ġspiritual": 6224,
            "ĠCollege": 6225,
            "Ġrelatively": 6226,
            "father": 6227,
            "ila": 6228,
            "ĠUs": 6229,
            "ensions": 6230,
            "Ġentertain": 6231,
            "Ġequally": 6232,
            "Ġsupporting": 6233,
            "Ġmissed": 6234,
            "Ġdefinitely": 6235,
            "Ġsmoothly": 6236,
            "ĠThomas": 6237,
            "-re": 6238,
            "uce": 6239,
            "ĠMart": 6240,
            "ĠMel": 6241,
            "Ġalg": 6242,
            "ĠUN": 6243,
            "Ġowners": 6244,
            "Ġfash": 6245,
            "Ġsymbols": 6246,
            "Last": 6247,
            "Ġpound": 6248,
            "Ġhall": 6249,
            "Ġstuck": 6250,
            "Ġsem": 6251,
            "Ġowner": 6252,
            "Ġwonders": 6253,
            "Ġanti": 6254,
            "Ġembracing": 6255,
            "Ġcapacity": 6256,
            "Ġintricate": 6257,
            "):": 6258,
            "THE": 6259,
            "ĠHol": 6260,
            "Ġenvironments": 6261,
            "Ġinvited": 6262,
            "Ġrequest": 6263,
            "ĠConst": 6264,
            "ĠDoes": 6265,
            "Ġlayers": 6266,
            "ĠMedic": 6267,
            "Ġpsychology": 6268,
            "ĠService": 6269,
            "TER": 6270,
            "Ġwire": 6271,
            "Ġlit": 6272,
            "Ġstones": 6273,
            "ĠOliver": 6274,
            "Ġoperation": 6275,
            "Ġinternal": 6276,
            "Ġprecise": 6277,
            "Sp": 6278,
            "Ġmer": 6279,
            "Ġupper": 6280,
            "osal": 6281,
            "apes": 6282,
            "Ġwarmly": 6283,
            "related": 6284,
            "Ġcolleagues": 6285,
            "Ġfinger": 6286,
            "sw": 6287,
            "alt": 6288,
            "uma": 6289,
            "Ġensures": 6290,
            "Ġcontaining": 6291,
            "Ġadminist": 6292,
            "Ġdisappointed": 6293,
            "'.": 6294,
            "Ġsouthern": 6295,
            "ĠTime": 6296,
            "ĠMag": 6297,
            "owned": 6298,
            "Ġexperiments": 6299,
            "Ġcrim": 6300,
            "ĠThank": 6301,
            "Ġwidely": 6302,
            "Ġmurder": 6303,
            "Ġbehaviors": 6304,
            "lie": 6305,
            "Ġought": 6306,
            "icul": 6307,
            "Ġreaching": 6308,
            "ĠFood": 6309,
            "ĠStreet": 6310,
            "Ġpromised": 6311,
            "Ġimpacts": 6312,
            "Ġcapture": 6313,
            "Gr": 6314,
            "Ġment": 6315,
            "Ġcontrast": 6316,
            "Ġagreement": 6317,
            "Ġbranc": 6318,
            "ĠThose": 6319,
            "Ġmarriage": 6320,
            "Ġdram": 6321,
            "Ġdetailed": 6322,
            "Che": 6323,
            "ĠMs": 6324,
            "Ġcompar": 6325,
            "Ġresidents": 6326,
            "Ġguard": 6327,
            "grounds": 6328,
            "Ġgathering": 6329,
            "Ġcryst": 6330,
            "Ġcommercial": 6331,
            "ĠSociety": 6332,
            "isy": 6333,
            "Ġgro": 6334,
            "char": 6335,
            "ĠLake": 6336,
            "ĠOff": 6337,
            "hesis": 6338,
            "Ġboat": 6339,
            "ĠSupp": 6340,
            "Ġconclud": 6341,
            "Ġacademic": 6342,
            "Ġliquid": 6343,
            "WH": 6344,
            "Ġdut": 6345,
            "Ġhey": 6346,
            "Ġshad": 6347,
            "ĠDi": 6348,
            "ĠNor": 6349,
            "Ġgrade": 6350,
            "Ġhasn": 6351,
            "Ġbrains": 6352,
            "Ġearthqu": 6353,
            "Ġclothing": 6354,
            "Ġelectrical": 6355,
            "Sc": 6356,
            "iology": 6357,
            "Ġbath": 6358,
            "amn": 6359,
            "riendly": 6360,
            "Ġpresentation": 6361,
            "going": 6362,
            "Ġdebate": 6363,
            "Ġvehicle": 6364,
            "New": 6365,
            "gon": 6366,
            "icked": 6367,
            "ective": 6368,
            "anges": 6369,
            "Ġtale": 6370,
            "Ġgreatest": 6371,
            "Ġvisitors": 6372,
            "Ġencouraged": 6373,
            "-D": 6374,
            "-day": 6375,
            "Em": 6376,
            "Ġyield": 6377,
            "Ġgall": 6378,
            "uls": 6379,
            "Ġacts": 6380,
            "Ġblind": 6381,
            "ificial": 6382,
            "Ġforming": 6383,
            "Ġloves": 6384,
            "Ġofficer": 6385,
            "Ġkingdom": 6386,
            "Ġmistakes": 6387,
            "Ġroutine": 6388,
            "Ġfashion": 6389,
            "lim": 6390,
            "Ġpin": 6391,
            "Ġinhab": 6392,
            "Ġnorthern": 6393,
            "Ġbeach": 6394,
            "iders": 6395,
            "ilit": 6396,
            "ĠRo": 6397,
            "Ġconfidence": 6398,
            "Ġrestrict": 6399,
            "Ġsinging": 6400,
            "ĠFranc": 6401,
            "ĠRussia": 6402,
            "Ġobviously": 6403,
            "ĠCharles": 6404,
            "-like": 6405,
            "BT": 6406,
            "ga": 6407,
            "Ġtip": 6408,
            "Ġmm": 6409,
            "ĠWil": 6410,
            "Ġchocolate": 6411,
            "Ġlege": 6412,
            "ĠOut": 6413,
            "Ġintense": 6414,
            "Ġunivers": 6415,
            "Ġshowc": 6416,
            "Ġpotentially": 6417,
            "ĠScot": 6418,
            "EE": 6419,
            "hs": 6420,
            "tical": 6421,
            "itutions": 6422,
            "Ġfal": 6423,
            "Ġfav": 6424,
            "ĠCy": 6425,
            "Ġshout": 6426,
            "Ġlemon": 6427,
            "Ġwondering": 6428,
            "Ġphotos": 6429,
            "mother": 6430,
            "ship": 6431,
            "Ġcart": 6432,
            "ĠArab": 6433,
            "Ġengage": 6434,
            "Ġdepends": 6435,
            "Ġaccepted": 6436,
            "Ġvehicles": 6437,
            "Ġinstruments": 6438,
            "gypt": 6439,
            "Ġrhyth": 6440,
            "ĠĠ": 6441,
            "hent": 6442,
            "ĠAp": 6443,
            "oogle": 6444,
            "ria": 6445,
            "Ġdepartment": 6446,
            "ĠBritain": 6447,
            "Ġcelebrate": 6448,
            "Ġdropped": 6449,
            "Ġinjury": 6450,
            "Ġultimately": 6451,
            "rete": 6452,
            "Ġboss": 6453,
            "ĠTim": 6454,
            "Ġsevent": 6455,
            "essions": 6456,
            "Ġdecor": 6457,
            "Ġrand": 6458,
            "Ġcontinues": 6459,
            "Ġdefined": 6460,
            "Ġsuggests": 6461,
            "ĠWilliam": 6462,
            "Ġempty": 6463,
            "ĠVirginia": 6464,
            ");": 6465,
            "Ġthinks": 6466,
            "Ġgreet": 6467,
            "owed": 6468,
            "ĠJo": 6469,
            "Ġroll": 6470,
            "Ġemail": 6471,
            "Ġgrab": 6472,
            "Ġsignificance": 6473,
            "ĠFrank": 6474,
            "Ġexistence": 6475,
            "Ġefficiency": 6476,
            "Ġrapidly": 6477,
            "Im": 6478,
            "RI": 6479,
            "Ġsatell": 6480,
            "Ġnarrow": 6481,
            "osa": 6482,
            "Ġthemes": 6483,
            "Ġadap": 6484,
            "Alright": 6485,
            "ĠSoon": 6486,
            "Ġindependent": 6487,
            "Today": 6488,
            "las": 6489,
            "with": 6490,
            "ĠMac": 6491,
            "ĠBas": 6492,
            "Ġplus": 6493,
            "Ġpron": 6494,
            "Ġseemingly": 6495,
            "Ġruns": 6496,
            "Ġprotected": 6497,
            "Ġfalling": 6498,
            "ĠGreater": 6499,
            "Ġrobot": 6500,
            "ĠSwed": 6501,
            "God": 6502,
            "Ġped": 6503,
            "Ġintended": 6504,
            "Ġplane": 6505,
            "ĠSpace": 6506,
            "oken": 6507,
            "Ġsucceed": 6508,
            "TS": 6509,
            "dit": 6510,
            "pare": 6511,
            "Ġtit": 6512,
            "oned": 6513,
            "ogue": 6514,
            "Ġarts": 6515,
            "respond": 6516,
            "OS": 6517,
            "ault": 6518,
            "Ġ..": 6519,
            "Ġwid": 6520,
            "Ġmort": 6521,
            "Ġisol": 6522,
            "ĠNASA": 6523,
            "Ġtraveling": 6524,
            "Ġremaining": 6525,
            "ĠSea": 6526,
            "Only": 6527,
            "Ġhonor": 6528,
            "ĠWhite": 6529,
            "Could": 6530,
            "Ġgift": 6531,
            "ĠIdent": 6532,
            "ĠSl": 6533,
            "cember": 6534,
            "Ġlikes": 6535,
            "Ġcloud": 6536,
            "Ġviews": 6537,
            "Ġparticipate": 6538,
            "inter": 6539,
            "ateful": 6540,
            "Ġchain": 6541,
            "ĠYet": 6542,
            "Ġinsurance": 6543,
            "Ġdisturb": 6544,
            "ĠOrgan": 6545,
            "Ġsurprising": 6546,
            "Ġperiods": 6547,
            "Ġmajority": 6548,
            "Ġimmune": 6549,
            "ĠTommy": 6550,
            "Ġbrilliant": 6551,
            "Ġkil": 6552,
            "agers": 6553,
            "Ġunity": 6554,
            "Ġgenes": 6555,
            "Ġcrack": 6556,
            "Ġbiggest": 6557,
            "Ġmindful": 6558,
            "ĠPhil": 6559,
            "Ġinnovation": 6560,
            "ĠRussian": 6561,
            "Ġnavigate": 6562,
            "ĠPacific": 6563,
            "Got": 6564,
            "Ġ:": 6565,
            "Ġwed": 6566,
            "ndrome": 6567,
            "Ġye": 6568,
            "Ġforty": 6569,
            "iform": 6570,
            "ĠCle": 6571,
            "ĠCam": 6572,
            "rie": 6573,
            "Ġchronic": 6574,
            "ĠLand": 6575,
            "Ġimpress": 6576,
            "Ġbuying": 6577,
            "Ġdiam": 6578,
            "Ġaffecting": 6579,
            "ĠFriday": 6580,
            "ĠEmp": 6581,
            "Example": 6582,
            "Ġconclusion": 6583,
            "Ġrandom": 6584,
            "Cos": 6585,
            "EM": 6586,
            "eal": 6587,
            "Ġfancy": 6588,
            "ask": 6589,
            "ĠCome": 6590,
            "ĠEgypt": 6591,
            "Ġelim": 6592,
            "anguage": 6593,
            "-life": 6594,
            "Ġneighbors": 6595,
            "Ġutil": 6596,
            "Ġmystery": 6597,
            "Little": 6598,
            "uge": 6599,
            "oured": 6600,
            "Ġforg": 6601,
            "Ġera": 6602,
            "Ġremoved": 6603,
            "Ġraw": 6604,
            "Ġ**\\": 6605,
            "Ġsurrounded": 6606,
            "Ġlucky": 6607,
            "Ġboundaries": 6608,
            "About": 6609,
            "Ġbranches": 6610,
            "Pre": 6611,
            "lines": 6612,
            "zed": 6613,
            "uses": 6614,
            "Ġstom": 6615,
            "ĠSub": 6616,
            "ĠON": 6617,
            "ĠProject": 6618,
            "ĠClass": 6619,
            "Ġlabel": 6620,
            "ĠJanuary": 6621,
            "uan": 6622,
            "Ġpra": 6623,
            "Ġitem": 6624,
            "Ġstead": 6625,
            "ĠDirect": 6626,
            "iece": 6627,
            "Ġsaved": 6628,
            "Ġconfused": 6629,
            "Ġtrial": 6630,
            "oxide": 6631,
            "ĠFebruary": 6632,
            "bor": 6633,
            "uke": 6634,
            "van": 6635,
            "icit": 6636,
            "ĠAD": 6637,
            "ĠFred": 6638,
            "ishment": 6639,
            "Ġplayer": 6640,
            "Ġlocations": 6641,
            "Ġteams": 6642,
            "ĠAmong": 6643,
            "Ġregardless": 6644,
            "Ġburning": 6645,
            "Ġvirtual": 6646,
            "Ġtribes": 6647,
            "ĠAssociation": 6648,
            "ĠCivil": 6649,
            "ĠWhe": 6650,
            "Ġinstall": 6651,
            "Ġweeke": 6652,
            "Ġswitch": 6653,
            "Ġcaptiv": 6654,
            "Ġconsumption": 6655,
            "Ġpulled": 6656,
            "omeday": 6657,
            "-M": 6658,
            "alle": 6659,
            "Ġhtt": 6660,
            "oos": 6661,
            "certain": 6662,
            "Ġseconds": 6663,
            "Ġcustoms": 6664,
            "Ġexercises": 6665,
            "Ġweapons": 6666,
            "CE": 6667,
            "Never": 6668,
            "ĠAir": 6669,
            "Ġinches": 6670,
            "Ġapparent": 6671,
            "Ġchildhood": 6672,
            "Ġwave": 6673,
            "ĠMuse": 6674,
            "Ġproducing": 6675,
            "ĠPublic": 6676,
            "ĠFound": 6677,
            "Ġblank": 6678,
            "Ġrealizing": 6679,
            "Ġmoist": 6680,
            "Ġideal": 6681,
            "ĠThompson": 6682,
            "eor": 6683,
            "inent": 6684,
            "Ġfool": 6685,
            "Ġleaf": 6686,
            "nthe": 6687,
            "Ġunits": 6688,
            "Ġremote": 6689,
            "Ġstrict": 6690,
            "Ġpover": 6691,
            "ĠWeb": 6692,
            "ĠIndians": 6693,
            "Ġauthorities": 6694,
            "Ġtotally": 6695,
            "ĠCarol": 6696,
            "-le": 6697,
            "Ad": 6698,
            "Pr": 6699,
            "rog": 6700,
            "Ġalike": 6701,
            "Ġdisorders": 6702,
            "Ġnewly": 6703,
            "Ġchest": 6704,
            "Ġessay": 6705,
            "Ġperformed": 6706,
            "Ġescape": 6707,
            "Ġchicken": 6708,
            "Ġfought": 6709,
            "Ġstem": 6710,
            "illa": 6711,
            "ĠBel": 6712,
            "ĠFin": 6713,
            "ĠJake": 6714,
            "Ġengaged": 6715,
            "Ġrepresented": 6716,
            "Ġrecognized": 6717,
            "Ġprimarily": 6718,
            "Ġvacc": 6719,
            "Ġcriteria": 6720,
            "Ġpoverty": 6721,
            "Ġfurn": 6722,
            "ette": 6723,
            "ĠLes": 6724,
            "Ġunknown": 6725,
            "Ind": 6726,
            "UR": 6727,
            "hire": 6728,
            "uct": 6729,
            "erved": 6730,
            "Ġstring": 6731,
            "Ġobserve": 6732,
            "Ġfascinated": 6733,
            "culiar": 6734,
            "Ġcycle": 6735,
            "Ġsamples": 6736,
            "Ġstyles": 6737,
            "Alex": 6738,
            "py": 6739,
            "rors": 6740,
            "Ġbul": 6741,
            "ari": 6742,
            "Ġinput": 6743,
            "Ġears": 6744,
            "uts": 6745,
            "\\\".\\": 6746,
            "olt": 6747,
            "onday": 6748,
            "Ġpractical": 6749,
            "Ġmagaz": 6750,
            "rolog": 6751,
            "Ġabsolutely": 6752,
            "Ġexpectations": 6753,
            "ĠParis": 6754,
            "Ġgalax": 6755,
            "ls": 6756,
            "Ġreference": 6757,
            "ĠTake": 6758,
            "ĠCath": 6759,
            "Ġpeculiar": 6760,
            "ĠUncle": 6761,
            "Ġextract": 6762,
            "Ġavo": 6763,
            "Ġdifficulty": 6764,
            "Ġsuspect": 6765,
            "Ġrevolution": 6766,
            "Ġinjuries": 6767,
            "Ġlinked": 6768,
            "Read": 6769,
            "cript": 6770,
            "Ġchann": 6771,
            "ĠNature": 6772,
            "Ġuncle": 6773,
            "ĠThough": 6774,
            "ĠEnergy": 6775,
            "Ġsales": 6776,
            "Ġanalyze": 6777,
            "OD": 6778,
            "\\nd": 6779,
            "oard": 6780,
            "ota": 6781,
            "ĠTw": 6782,
            "Ġstim": 6783,
            "cho": 6784,
            "umes": 6785,
            "ĠNovember": 6786,
            "ogen": 6787,
            "ictor": 6788,
            "Ġcrew": 6789,
            "Ġconnecting": 6790,
            "ropical": 6791,
            "Ġinsects": 6792,
            "pan": 6793,
            "ĠBig": 6794,
            "Ġcompassion": 6795,
            "Three": 6796,
            "Ġgovernments": 6797,
            "Ġlawy": 6798,
            "Ġcombination": 6799,
            "Ġnecessarily": 6800,
            "Ġroads": 6801,
            "Ġeagerly": 6802,
            "Ġefficiently": 6803,
            "Ġtitle": 6804,
            "ĠWork": 6805,
            "ĠJud": 6806,
            "Ġcorrespond": 6807,
            "Ġannounced": 6808,
            "Ġarchitecture": 6809,
            "Br": 6810,
            "Back": 6811,
            "west": 6812,
            "Ġcourage": 6813,
            "ĠSen": 6814,
            "Ġalign": 6815,
            "Ġuniversity": 6816,
            "ucks": 6817,
            "ĠStr": 6818,
            "Ġvisible": 6819,
            ".D": 6820,
            "Put": 6821,
            "Um": 6822,
            "ua": 6823,
            "ounce": 6824,
            "Ġshift": 6825,
            "Ġvan": 6826,
            "Ġprem": 6827,
            "ĠAnother": 6828,
            "Ġcompleted": 6829,
            "Ġcollecting": 6830,
            "Ġfootball": 6831,
            "Ġpurposes": 6832,
            "Ġdefinition": 6833,
            "Ġethical": 6834,
            "Ġobstacles": 6835,
            "Ġscholars": 6836,
            "Ġdiscrimination": 6837,
            "Ġcub": 6838,
            "Ġholes": 6839,
            "asant": 6840,
            "amental": 6841,
            "olve": 6842,
            "anting": 6843,
            "Ġdisaster": 6844,
            "Ġrail": 6845,
            "Ġconfir": 6846,
            "Ġmarine": 6847,
            "Ġprocessing": 6848,
            "Ġbasket": 6849,
            "Ġdepth": 6850,
            "Ġsuffer": 6851,
            "Everything": 6852,
            "Ġhabitat": 6853,
            "ĠRepublic": 6854,
            "Ġestimated": 6855,
            "ĠJournal": 6856,
            "Hold": 6857,
            "Remember": 6858,
            "Ġrein": 6859,
            "Ġstorage": 6860,
            "urry": 6861,
            "Ġrom": 6862,
            "ustration": 6863,
            "Ġproof": 6864,
            "Ġvote": 6865,
            "Ġsocc": 6866,
            "Ġunw": 6867,
            "Ġregulations": 6868,
            "ĠUnfortunately": 6869,
            "Ġlegisl": 6870,
            "Ġimmediate": 6871,
            "Ġrecommended": 6872,
            "Ġbottle": 6873,
            "ĠDevelopment": 6874,
            "ĠGovernment": 6875,
            "Ġpreserving": 6876,
            "Ġcomprehensive": 6877,
            "-and": 6878,
            "inity": 6879,
            "Ġcash": 6880,
            "ĠFarm": 6881,
            "Ġsupported": 6882,
            "Ġengineers": 6883,
            "Ġgravity": 6884,
            "ĠMuseum": 6885,
            "Ġsoccer": 6886,
            "Ġcognitive": 6887,
            "Ġpure": 6888,
            "icial": 6889,
            "asures": 6890,
            "Ġaside": 6891,
            "ĠCand": 6892,
            "ĠDO": 6893,
            "Ġmonitor": 6894,
            "Ġtreats": 6895,
            "Ġcorpor": 6896,
            "Ġrepresenting": 6897,
            "Ġpeaceful": 6898,
            "ĠConsider": 6899,
            "Ġincreasingly": 6900,
            "Ġsomeday": 6901,
            "itis": 6902,
            "anny": 6903,
            "stairs": 6904,
            "Ġwash": 6905,
            "ĠBE": 6906,
            "Ġlean": 6907,
            "ĠJer": 6908,
            "Ġaccomp": 6909,
            "ibl": 6910,
            "Ġantib": 6911,
            "Ġsurvival": 6912,
            "________": 6913,
            "ĠSunday": 6914,
            "-n": 6915,
            "Ġcas": 6916,
            "Ġyouth": 6917,
            "ĠCare": 6918,
            "anda": 6919,
            "eless": 6920,
            "Ġwilling": 6921,
            "Ġflavor": 6922,
            "Ġconducted": 6923,
            "ulum": 6924,
            "ĠBet": 6925,
            "ĠBible": 6926,
            "ĠNative": 6927,
            "berg": 6928,
            "Ġsyn": 6929,
            "Ġmedium": 6930,
            "ĠSpain": 6931,
            "Ġappreciation": 6932,
            "Ġpreviously": 6933,
            "Ġcorrectly": 6934,
            "Ġintelligence": 6935,
            "Ġhesit": 6936,
            "afe": 6937,
            "ker": 6938,
            "Ġtooth": 6939,
            "teries": 6940,
            "ĠPract": 6941,
            "ĠRome": 6942,
            "Ġovercome": 6943,
            "Ġexamine": 6944,
            "Ġphoto": 6945,
            "Ġfeedback": 6946,
            "Ġreaction": 6947,
            "ĠHarry": 6948,
            "Ġsatisf": 6949,
            "wing": 6950,
            "Ġtack": 6951,
            "outs": 6952,
            "ĠJoe": 6953,
            "Ġsuffering": 6954,
            "ĠCurious": 6955,
            "Ġstomach": 6956,
            "LA": 6957,
            "Ġsession": 6958,
            "Ġcoc": 6959,
            "ĠIre": 6960,
            "uten": 6961,
            "ĠAny": 6962,
            "Ġrose": 6963,
            "Ġbreast": 6964,
            "Ġoptim": 6965,
            "Ġargument": 6966,
            "Ġfailed": 6967,
            "Ġconsistent": 6968,
            "Ġwebsites": 6969,
            "Ġagriculture": 6970,
            "from": 6971,
            "Ġath": 6972,
            "Ġsessions": 6973,
            "iture": 6974,
            "itors": 6975,
            "storm": 6976,
            "ĠMind": 6977,
            "Ġbranch": 6978,
            "Ġpersist": 6979,
            "Ġspreading": 6980,
            "Ġfailure": 6981,
            "ixture": 6982,
            "Ġmolecules": 6983,
            "IR": 6984,
            "ĠHIV": 6985,
            "Ġmusical": 6986,
            "Ġheads": 6987,
            "ĠExam": 6988,
            "Ġdrawn": 6989,
            "Ġfarming": 6990,
            "Ġstores": 6991,
            "Ġmaps": 6992,
            "Ġcritic": 6993,
            "cher": 6994,
            "uis": 6995,
            "erate": 6996,
            "Ġfold": 6997,
            "Ġpil": 6998,
            "ashed": 6999,
            "Ġnose": 7000,
            "Ġassemb": 7001,
            "Ġships": 7002,
            "ĠPri": 7003,
            "avis": 7004,
            "Ġblow": 7005,
            "Ġinstitutions": 7006,
            "Ġfollows": 7007,
            "Ġjoint": 7008,
            "Ġsmoking": 7009,
            "Ġheavily": 7010,
            "Ġofficials": 7011,
            "Ġpolitics": 7012,
            "nel": 7013,
            "roll": 7014,
            "ĠHenry": 7015,
            "abb": 7016,
            "Ġmanner": 7017,
            "ept": 7018,
            "Ġclever": 7019,
            "Ġcombining": 7020,
            "rigued": 7021,
            "Mrs": 7022,
            "Ġembark": 7023,
            "Meanwhile": 7024,
            "Ġassessment": 7025,
            "met": 7026,
            "Ġconver": 7027,
            "umps": 7028,
            "ears": 7029,
            "Ġbackgrounds": 7030,
            "Ġregional": 7031,
            "Ġfactory": 7032,
            "Ġmarked": 7033,
            "Ġmeasured": 7034,
            "Ġwarming": 7035,
            "Ġangle": 7036,
            "Ġemployees": 7037,
            "ixty": 7038,
            "fish": 7039,
            "itals": 7040,
            "arant": 7041,
            "Ġelder": 7042,
            "urse": 7043,
            "Ġnegot": 7044,
            "cip": 7045,
            "ormal": 7046,
            "Ġscar": 7047,
            "nyou": 7048,
            "Ġplanets": 7049,
            "Ġwindows": 7050,
            "Ġanticip": 7051,
            "Ġvideos": 7052,
            "Ġhoriz": 7053,
            "Ġinteractions": 7054,
            "ĠFlor": 7055,
            "Ġsearching": 7056,
            "Ġbags": 7057,
            "Ġfixed": 7058,
            "Keep": 7059,
            "Ġrely": 7060,
            "neys": 7061,
            "Ġbridge": 7062,
            "Ġpreserve": 7063,
            "Ġoperating": 7064,
            "ictionary": 7065,
            "Ġharvest": 7066,
            "oves": 7067,
            "Ġtables": 7068,
            "Ġwestern": 7069,
            "Ġodd": 7070,
            "Ġlaid": 7071,
            "ros": 7072,
            "ĠMike": 7073,
            "Ġtechnical": 7074,
            "Ġprompt": 7075,
            "Ġshaping": 7076,
            "Ġsurroundings": 7077,
            "Ġsettings": 7078,
            "ĠJews": 7079,
            "Ġpushing": 7080,
            "host": 7081,
            "mark": 7082,
            "achel": 7083,
            "\\\".": 7084,
            "anta": 7085,
            "agon": 7086,
            "Ġpermission": 7087,
            "Ġpretend": 7088,
            "Ġdesire": 7089,
            "Ġtreasure": 7090,
            "ĠDecember": 7091,
            "Ġhousing": 7092,
            "-on": 7093,
            "nit": 7094,
            "uration": 7095,
            "ĠSil": 7096,
            "ĠCult": 7097,
            "Ġchoosing": 7098,
            "Ġscary": 7099,
            "Ġzero": 7100,
            "Ġlaunch": 7101,
            "ĠLouis": 7102,
            "-F": 7103,
            "Ġsin": 7104,
            "ala": 7105,
            "ushed": 7106,
            "Ġlect": 7107,
            "Ġspots": 7108,
            "Ġsignals": 7109,
            "Ġengaging": 7110,
            "Ġtypical": 7111,
            "ĠConf": 7112,
            "-sc": 7113,
            "ERE": 7114,
            "ĠDesign": 7115,
            "Ġsleeping": 7116,
            "Ġaccounts": 7117,
            "Ġstruggling": 7118,
            "Ġintellect": 7119,
            "PE": 7120,
            "nis": 7121,
            "rid": 7122,
            "Ġax": 7123,
            "ona": 7124,
            "Ġowl": 7125,
            "Ġlaughter": 7126,
            "ĠBay": 7127,
            "ĠOcean": 7128,
            "earchers": 7129,
            "Ġsynt": 7130,
            "Ġauthent": 7131,
            "AND": 7132,
            "Ġofficers": 7133,
            "ĠSecond": 7134,
            "Ġopinions": 7135,
            "Ġcul": 7136,
            "Ġpock": 7137,
            "arity": 7138,
            "ĠMill": 7139,
            "ĠLong": 7140,
            "ĠJoy": 7141,
            "Ġfoundation": 7142,
            "Ġrab": 7143,
            "Ġaddressing": 7144,
            "Ġmanufacture": 7145,
            "Ġinnoc": 7146,
            "real": 7147,
            "Ġcaut": 7148,
            "ano": 7149,
            "Ġrent": 7150,
            "ady": 7151,
            "Ġstunning": 7152,
            "Ġliber": 7153,
            "Ġvoices": 7154,
            "ĠGoogle": 7155,
            "Ġclock": 7156,
            "ĠStar": 7157,
            "ĠSov": 7158,
            "Ġmini": 7159,
            "Ġrecorded": 7160,
            "Ġdigest": 7161,
            "ĠSeeing": 7162,
            "Ġencountered": 7163,
            "Ġremarkable": 7164,
            "IGH": 7165,
            "Ooh": 7166,
            "oons": 7167,
            "esity": 7168,
            "asters": 7169,
            "acher": 7170,
            "ami": 7171,
            "Ġhaz": 7172,
            "ĠHome": 7173,
            "ĠHmm": 7174,
            "Ġcompare": 7175,
            "Ġfinds": 7176,
            "Ġpossibilities": 7177,
            "rastructure": 7178,
            "-se": 7179,
            ".org": 7180,
            "iate": 7181,
            "Ġwake": 7182,
            "ishes": 7183,
            "Ġma": 7184,
            "sey": 7185,
            "ĠAI": 7186,
            "Ġexact": 7187,
            "ĠDem": 7188,
            "ĠFind": 7189,
            "Ġdiss": 7190,
            "Ġinvestigate": 7191,
            "Ġterritory": 7192,
            ").\"}Ċ": 7193,
            "-H": 7194,
            "Ġcow": 7195,
            "orith": 7196,
            "Ġfan": 7197,
            "icide": 7198,
            "ĠBudd": 7199,
            "Ġsheet": 7200,
            "Ġnormally": 7201,
[...]
